node {
  name: "x"
  op: "Placeholder"
  attr {
    key: "dtype"
    value {
      type: DT_FLOAT
    }
  }
  attr {
    key: "shape"
    value {
      shape {
        dim {
          size: -1
        }
        dim {
          size: 100
        }
        dim {
          size: 9
        }
      }
    }
  }
}
node {
  name: "unused_control_flow_input"
  op: "Placeholder"
  attr {
    key: "dtype"
    value {
      type: DT_INT32
    }
  }
  attr {
    key: "shape"
    value {
      shape {
      }
    }
  }
}
node {
  name: "sequential/lstm_1/PartitionedCall/while/enter/_19"
  op: "Enter"
  input: "sequential/lstm_1/PartitionedCall/strided_slice"
  attr {
    key: "T"
    value {
      type: DT_INT32
    }
  }
  attr {
    key: "frame_name"
    value {
      s: "sequential/lstm_1/PartitionedCall/while"
    }
  }
  attr {
    key: "is_constant"
    value {
      b: false
    }
  }
  attr {
    key: "parallel_iterations"
    value {
      i: 32
    }
  }
}
node {
  name: "unused_control_flow_input_1"
  op: "Placeholder"
  attr {
    key: "dtype"
    value {
      type: DT_INT32
    }
  }
  attr {
    key: "shape"
    value {
      shape {
        unknown_rank: true
      }
    }
  }
}
node {
  name: "unused_control_flow_input_2"
  op: "Placeholder"
  attr {
    key: "dtype"
    value {
      type: DT_BOOL
    }
  }
  attr {
    key: "shape"
    value {
      shape {
      }
    }
  }
}
node {
  name: "sequential/lstm_1/PartitionedCall/while/sequential/lstm_1/PartitionedCall/strided_slice_switch/_42"
  op: "Switch"
  input: "sequential/lstm_1/PartitionedCall/while/merge/_30"
  input: "sequential/lstm_1/PartitionedCall/while/LoopCond/_35"
  attr {
    key: "T"
    value {
      type: DT_INT32
    }
  }
}
node {
  name: "Func/sequential/lstm_1/PartitionedCall/while/body/_12/input/_91"
  op: "Identity"
  input: "sequential/lstm_1/PartitionedCall/while/sequential/lstm_1/PartitionedCall/strided_slice_switch/_42:1"
  input: "^Func/sequential/lstm_1/PartitionedCall/while/body/_12/input_control_node/_84"
  attr {
    key: "T"
    value {
      type: DT_INT32
    }
  }
}
node {
  name: "Func/sequential/lstm_1/PartitionedCall/while/body/_12/output/_102"
  op: "Identity"
  input: "Func/sequential/lstm_1/PartitionedCall/while/body/_12/input/_91"
  attr {
    key: "T"
    value {
      type: DT_INT32
    }
  }
}
node {
  name: "sequential/lstm_1/PartitionedCall/while/next_iteration/_66"
  op: "NextIteration"
  input: "Func/sequential/lstm_1/PartitionedCall/while/body/_12/output/_102"
  input: "^Func/sequential/lstm_1/PartitionedCall/while/body/_12/output_control_node/_107"
  attr {
    key: "T"
    value {
      type: DT_INT32
    }
  }
}
node {
  name: "sequential/lstm_1/PartitionedCall/while/merge/_30"
  op: "Merge"
  input: "sequential/lstm_1/PartitionedCall/while/enter/_19"
  input: "sequential/lstm_1/PartitionedCall/while/next_iteration/_66"
  attr {
    key: "N"
    value {
      i: 2
    }
  }
  attr {
    key: "T"
    value {
      type: DT_INT32
    }
  }
}
node {
  name: "sequential/lstm_1/Read/ReadVariableOp/resource"
  op: "Const"
  attr {
    key: "dtype"
    value {
      type: DT_FLOAT
    }
  }
  attr {
    key: "value"
    value {
      tensor {
        dtype: DT_FLOAT
        tensor_shape {
          dim {
            size: 9
          }
          dim {
            size: 128
          }
        }
        tensor_content: "\241o\365=\376\366\007=\260\025\262\2759\375\r>C\344\311\275\006EN\2766(E\275{\t\217\275\030u\213\276i2O\275\317\202\031\274\262\224\031\276\3133\255\275\375\017?\276!\273F\2769\377\375=\347i\373:\314P\014\275;\376J\276\022/\361=\340\'^\275\035M\177=\024\333\001\276\204\036t<\212T\223\275=\007\272<\316\356H<@z\225\275\326\002\323\275J]\261=\223\030b\274\335\026(\276a\343\363\275\211\276\215=\002a3>/\321\302=\371n\275=6\274\337\2756\220C;\337P#\276\262\334b<\201\"\314\275\230\017\324=-X\200\276\250r\234\275\006\323\357=m\"z=\374\363\261=\3048\220=)GY\275\335\256\013>=\230\313\274\'\231\330<\274\010\277\275L\247\347=i\304\023>\323`,\275\004\026\370=\300\331\322\275J}\253<s\030\373\275\003\270\310\275\017\316\000<\020\225\251=)\016\203;m\306K=b\263\302\273\027\266W\274\243\267\265;\314D\005\276v\035\225\274\374\247\313\275 \260\362\275_\320\323<\334\225/=\230r\344=A=\374<\347\034\317\275\377\336\002\275aO$>(s\r>8\002\217\275A\331\222\275\326\251\373=\303\322\367<\202\202\r>\200Or\275\377\242\225\275\240\023,\275\006\325\353\275\352f\376=\014b\240=8!\013=.\324;\274\255\261@\276\261\302\232<6\301L\274\320g\212;\013\253\026>\037\334r\275yuS<\223\213\002>#\236\355\275\t)>=\305\364\253=\300\021\026>\355-\234=|\336\221=#\334\034\275\256\224\325=\016Z\246=\244r\367=\256``\274\272\324\"\276J\004/\276\"\025%>q\200\372\274\375N\312;\341\332\233\275&\253;\275t\246#\274\034J!=\355Y\\>\207\362\203\274\364\212\311=6\211\022\276y\211\264\273\217N\026\276%\222\212\273\374\315}=F7\277=0a\231\276\355\201\002=2\225\214\275\247\302\361\275\317\007\026=\332t\336=\211\326\347;s\266\"\276F\177\250=\263\305d>\247P\r\276Xf\004\2758\253|\275\001\340/=\353\352\344\274c\253\023\275\002\001C\276:&\370\274@#\273\275\261Bn>\356\0214>\003\375&\2769i\375\2743\322\213={Am\275\313J\326\275!\313\252\275\262\215\013>\312\266O>*\033\250\2757^\026>\376\3510\271\375+\235\275\262n\277\275\271\354v>vr\230=\211\004\030\275\'!6\2764\030!\276lE\274\272\321\304\t<\301 \017\276\315\'\205\275M\274\356=8g\002\276o\351:\276\345\311\006\276\215\317\220\273\321@\023\276\227\314\t\276\004\203\375=K\026\030\275^\245\264=Y/\212\275aC\017\274\273y/>t@Q>w\260\014\276lI\013>a?\034\275\374g[=\345 ><=\265l>\257O\220\275\303d~<Q\323\300<\272\350\245=\267lI\274\300\253\372=r\275\020=\371\325\342=B\3622=\231(\033\276L\211Q\276\361\032!\273JNX\274~\257\325=\036\226\212=\206\\\247=\024\272\004\275>12>\353C\300\275d\232S=5:\360\275\317\264\\>%\265\306\275\311\241c\274\260\017*=\340\326,\276rs/\272\3100\023\276\313\024\n>\034q>\275\375p\322=%Z\301=&\365\216=\366\3468\276\022*\003\2750\320\021>\r\265\231\275-\264\212=+PW\275\347\302\220\274\243\204\014<u\246\n=\334k\032>=E_=\3220u\275\007\244\\\275d\311\030\276R\203\023>\031\373\253\274?\025\347=\261=\321=\034x\362\274\211\221\202<\004\217(>F\341\r\274\037\214i=\217-\315\275U\201\307<A\376H\276U&\305\275\205\276\224=\0205[;\343@\241=<\337$\276Mo]\276^\001E>Jy\341\275Y\037*\2762\363\"\276\001\216,\276\243=}\274(\320\222\275\314^P>\241\030x\275,\000\013>\200\231\270;=OD\276\355\017i>\320\315\007\276\000\377\177>\377T\257<\365,\257\275\332_\t=O2S\276\226\335\277\275\335wh>\352V\017>U\257\010=f\355\220>$J\030\276\273\363?>>\366\241\276\2746\220\2750\205R\276\241\200\026\276G\033\001\273\231J\270\275\371\244p\276V\226U\275\271\314o>\334\246\037>~X\362=\246_Q\274r\210C\276\004\343\177=\325yX>\236\327\222\275\224j\036>\312\013.>\027\361H>\325\216x>r\263\021>\347/f>\002I_\275BK\000>\347Qh\276Fs\316=\\i\225\275\202t>>\271\257\270=\325\tk>*3\324\275\207\301\016\276\304\255\014\276d\354p>%\2647>K\236\367\273\226&\265\275\253\3708>\315V\032\276\373\373\333\275\0146c\275I\207\004=\243\010\227;\302Hw>\310\'\034>JP\211\274m\263N>\267\352s<c\217\320;\315\347]>R\220\002\276\340*\360\275\"\365\207=\327\316\n>\033\245\034>\333aq>\226\366B\276>\376\256\273\250m\221<u\231~=a\335E\276g\374\310=!\237p>\347\266\233=\037i9=!\234\310=\023-\212<\354\312=>\245\344u\276]\004\006\276\323\227\363<\273)3>\236\003\275\275 \364\320=\301pR>\206\275\014=\203`3>7jd\276\007\026\034\276\311\274\372\274Q\246H>\263\021\345<\262\304\027>\253]i>\241l6\276\323S\216\275\001\027\241\275\274J#>&\321\310\275\n\010\357<UF8=\242\n\362\274\271\260\026>y\265\025\276\252Z\274=\335Z\222\2750$\r\275\215ne>\347\335\003\275?\357\213>\222\327\346\275\007=\211\275\002s\340\274\265\273(>\200\262\307>\372\367\236>\355IW\276$gP:\253,T\275)\215\007\276\207\355h>2\272\033=L\226s\276Y\001\212\275\001\266\032\275\216\212W\274}\003\221\275T.f\275\316\332E>I\337M\2763d\255=c\267o\276\330\366\201\274J\024\253\274YX\025\275\266\346\017\276\215\2720>\346\354\262\275a1f\276\3064\225>\251} \276\224\202\000\276\251\031\322=.q\215>\023\200->Z9\275;\177*V>\263l?<)\215m\2751\256I>\260\336\376=\257\016\206\276\032\352\224=\252s\325\275\033n\312=\352\316@\275\350A\200>\221G\321\275\310z\003\276\310$\241\275AEm\276X\205j>a\317l>\263\324\265\275x\362\240\274\235\016,\275\332[\032\276b)\241= \033\304\275=\324\021\276\217W\257\275mR\201>o\306^=0\206\310>\320s\226>\031Dy\276\256\035\307=\333_\260<\263\314@=n\013\017\275\330\331%\276E\346\375\274QQQ\274\202\266\034\276\0274R\276\335D\260<r*\350=\274m\337=\201%\t\275\231\3417\276\371\035`>\267\240\233>H\023\221=6u\276=Ith>\"\360\333\275C2m=\361\'\014>\366\362.>l\010\306=\260|\010\276\213(1\275\010\2700\275\275\333\205<\021\301v>\373s\002>\225\345\231\274\312\224\016=\255\207\020\276\220\3262>\322\367.>|\227}>)\231o\276\262\375\014>|\014\222\276\370\305\031\275\245?\346=\206r\203\275f\355x\272M\302:\276\374\026\016\276\302\215a\276l\006\251\275\\59\276\345\201\027\276\007\321\373;DC\376\274R\007#>\'\000\004=\016\306\224\276#\206\266\275\0331\235\275Y\222Y<\035\026<\274T\324B=\020\021\246>\020Hg\274p\031k>]\360\214\275\262m\026>F\304\016>C\351#=\312O0>\346TR\275;\224\265=\203\250\216>\235\027\333=\035\332a\275\0002\220\276F=\036>\216\231\025>F\262+>e\210r\275\303\304\355=8\275}=\002R>\275\316\361\251=}\272\316>\243\021k<\024\205\353\2751\\\225=N\3233=?\3738\276`TD>u\355\271>\336 \207\275/Ge>|[\246=\004\303X\273\226&,>`\234&=-\242T\276a\375\315<kU\235\275\252L\222>~\315\244>\352\037\371\274\222\357D=\343T\030\276\317\346J\275\227\350\322\275\312M\211=\3430w\276\263e\364>\206\300\322=H\257Y<\346\324\302>M\013\237\275\n?\000=\"\272\360\274 \305v\276\263>\225\275\205\030\255=\004<\034<\370\350W=:I\326\275\252P >g\355\262=~|\234<x\300\003>\261T\023>\300\026\360=\226\262\357>\1775\210>[P\241>\'\325x\2753\207\221\275\310*\247\276\'R9=\270\234\373=\3461\\>.d\025\276b\366^\2769\013%\276\025\342X\276[H\221\275\267\327]\276\277l\271>\231\003F>H\371\327=\017[F\276\257X\016\276\223\374\202\276\210b\351=\321wu\276n\263\253\275\317z=>\203\327_<\375N\243\275\236\314\342\2755<\357=\220\303\202\276rR\302\275\326,9>!M]>Rv\320\275\311\332x\276\225\313\276>\217\236->\"\007\354=F\312D=\357.\340=\225\3114>\362O\331<\006\260w\276Q\302\237>\n\304\256\276\364\263\251>\335>\024>\244`\304\275\344\2256>\364\305\217\276\021\216\236\275\305\360\031>\t\265\t>\017\2411\272\234 ~=W\221L\275@\224\013>\370\1777=0\001\272>\344Qu\274\372\232\227\276sm\232>\206\'Q>\326\250k>\004v\236\276\r\"\241\275%B\310=\351\330\013\276Y\233\276\275:\010\225=<\255\317=\342\372\025>\377\236u\275\227\300\357\275N\312\215\275\214*\347=\244w1\276\207\330U\276\'\371\360\275\210u\035\274-\234\324\275\241i\200\276g\246\357\275\2256\360\274\204\220\222>\273\223\236\275\334\356\232\276\364Uh\275\304f9\275\326e\205\275\026\'\246>\357n\356<Kuq\276hA\\>\353\026\212\276\364\t9\276\3764\260\274\260\370*>\335X\007\276\326\030U>\317\000\226\275t\251S\276@\022\031\275lvF\274,&K>\337\336\263>\327fn8\237\254\325\275\334\253Z\276G\2304>\373%U\275\200Y\207=\361\234\304\276\324\362\303>\342\261\035\276\335\370\254>\253\245\003>\332kN>06\005\276\005V\200\276\2561\253=\237\307>>\302g|=1iG\275\371\331S\276_e >\325\323b\276}M\261>\310\244\237>^n\332=\361\3006>\345\"\203>F\245\273=W\n\000>PNh>D\205\224=\231\250\351\2750\021\324=)kD>\212\373\335\275\236\233\337\276\241\341\241<1\222\345\275\032\345\026\274\341\352\206>\254\364\">b\024\017=\212\024\265>\277\365\376=\017/\243\275g&\363\274\341\021N>\306\234\017\2760\335k\275\207\203\205=5\205\301\275\2759\r>\223\324\010\276k%[>\006\340t>4{\271\2732\334t>\343G{\275\\{\243>P\022\r\276\303\365\330<O\253\022>h\031\334=\307\217\034\276\222\330\336=J\237\261\276~[g\276\337G\337<s\016\207\276\021\"a>\203)\277=\366]\030>\313j:\276inb>?\242\226\276%\353h=\336\001\276=\324 ^\276\2371!\276\006\'\306\275\226\211i=\032E\243=\223\222\300=D\374\366={i\234\275\020\300l\276\371\022g=\247x\240\276\216`\206\275\363\013\'=T\352\014\276\014\351.>&*\001\276k\'\373\275\255\004\276=\243\2666>\231\252\332>\211(W\276\2170\241\275;\200\227>\366x\r\276b\321\257=\216\307\272>\2509\202>\272\311N\274\032\220\206\276[\273\224>]\021\206\276\350+\337=`s\243>mfK\275\346%s\275\003-\343<\215\001\353\275:b\006\276\336\3142>\275sE\276\243\347I>#\274\215=i\254-\276\321\225\265\2766i\200>\255\276V>f=\221>,E\224\276\025\000J;?6\260>\276\363->\004~\351>\010\271~\275)\227->\\\r;\276\315\201\016=\250\357\021\276tP\362\276\317)\252>\"n\010\275@Z\362\275E\202$>\227\237`\275\226\250\021>%{\236=v\317\317\274!\003\240>o\257\224\276Q\206\033=\250\017\243;\250\204\000>\017\312\323\275\354QF\276dQ\215>^\263\323\2741\237q>\304\374w>AF\336<\253\\Y\276{=s\2764]q<Q\275\335=<i\374\275\207\320\331>\017\244\037>\'K\205>\361\263d>\025\016%>\366\364\215=\"s\201\276~\242\301\274\'c4>\225B+\274\316\010\322<\005\352\024\276\232\253\020>?\262\305\275\326\326a\276%W\000\276Nj\346\275\211\000^>\253\027\034\276\'\205\201\276\311\030l>=b\232\276;\320\212>\224\254\246\274\036\017+\276q\270\375=w\330\030\274Z\'\006\275\027d\034<4\235\325\274\3431-<\340\033V\276\010\316\300>\010\327\261>#wq\275\324I\026\275\266[\362=,o*>\300\304\266\276\"\255\014>\252\231\223\275\t\017w\275\032\242\010=8\204\032>\345\345\377=iV\241>\257\264a>,\375\265>d\337x\276\251\354[=\211\271\026>\226\336\210\276\375K\235>\236\372\271;2\201\254=\275\0175>\345\032\033\271cO\266=~\332\300\275\005\341k=\372DG>\347hE>\3138=\276a\360\375\275\\v?=Q\004I=\372\2505>\272\266\273\275\325\313)>\337q\204>\2477\003\274\201\335\372<\375\253\277=\254\273\010>\325z=>\034@I>$\232\355=\306r%<\272\026\"\273\301\t\301=^\213\245\275\3570\320\274s_7>\007?0>\n\222\246\273\201\222X;\004\021\302\274-!0=`1\022=S\330D>k=\225\276\254l\021=t\317\275\276\025\321\371<\344\247\251\275{\314\370\275\232o\334<\371%\032=\272\265\017\276\022\026\206<\326\345\214\275Ce\313\275y\236/\276\277\317\351\274\322\235j\275\0023\243<h\014\207\275\022\303\204\275\226y\247\275Y\252\317\276g\030\216>\211\345\200<%\350\014\276\261\014\204\274\371\214X\276>s+>\216\006\365\275\311\007\n<\222\231\265>\224\347?\276\307%\n=/\370\000\276\033\242j\276\204t,\276\325X\365\275\360*\245\276^\3743\274\303\017V<\226h|<uJ|\276\013\2172\2766\030P\2734\364\246\276\343q\222=\210\257S\274<\265(>)\n\227\276\035\320u\276\004\0275=\315\2260\276\266\215\256\275\212\256u=\352\271\320>\317M\177\276\370\233\356>e\352\271=\200\360\324\276\2436\213\272\027\n\014=\016\252\246\274\034\020F>\360\016 >R\000V\275H\252\031\276s\377\320\275\'oJ>\261\306\320\276(\205\n\276n\332\210=\213\245\225\274<D\016\274:\r\304\27564 >\370\033L\274\'9\">\335{T\276L\354f\276\217\264\204>\231\252\304\275\336H\227\275\201\0343=\263\336\262\276Oag\276\270C;\276h\027\330\275\200\274\252\275\210\243\212>\2239\303=\022\327y\276+D\020\2769dP<\340\366\0349\212|\024\276\361P\025>\206|\346=\000\3259\276qZ\310>\302!\004\276\334y\323<\322`\201\276\035o\360=\304\016G=I\344\307\275.J\'\275\257\276@>\212\246\245;\335\332\311\273\330Xi\276q\\\005\275\036\351\000>\211\236\274\276\332\'4=Y\311<>\276\t\267\275]_9\276T0\206>5\326\344\275\330J\251>iN\222\276\276\337\305\275\360qa=\324:,>\304\033$\275\216F\236\275\361\021P=\340\307\233\275\201l\305<_\255\324;\307\003\313=bL!<\302a2\276\342\340\211>O=\337\273P5g>N9\301=\241\332\314=\351\022\366\274\252:5\276aZ\205\276_G\215\276a\207U\276\033`\270=\203\240\212\275p\010]=\025\3322>\331:t\276\241k\003\275\037\263\\>\222\2061\276<\246O>w\020\224\276\374\311\273=\226\333\276\276\214ke\275\020\371\024>\026?\245=4s\032<\344\2312>+*\021\276\014\032\207\275e \243>g\205\207\276\240w\367\275Ed\215\276\203QK=\337\365H\273\215/\017\276\014p\n\2760H\260\275\234;\003\276\3778\234\276\326u \276\213\202f\276h\312\227=\3265\010\276\250y\212=\307E\256\276\215\261\240\274\332R\236\275\252\342h\274\000\355B=\355\322R>8\376]>vF\210>\330\347/\276>F\266\275\346\261E\276\314\2028=\210?\216\274\023\347\201\274\322h\202>]`\r>\212a\320>a\032L>\007\'7\276\372F.\276\200\266\211>\273\344\325\275\325\366\312\275\025_\375<\207\035&>\004\201#\276\310\241\n\276\302\260\234<v\023\213\276\253\'#\275\222>9>\221/\021\276w\373\000=3\336\353\275\001\251\207\275Lb\261>l\211\306\274\255\271s>\016\2603\276lj\235<\315\263Z\276\363\216\215=\276\335><q\006c>"
      }
    }
  }
}
node {
  name: "sequential/lstm_1/Read/ReadVariableOp"
  op: "Identity"
  input: "sequential/lstm_1/Read/ReadVariableOp/resource"
  attr {
    key: "T"
    value {
      type: DT_FLOAT
    }
  }
}
node {
  name: "sequential/lstm_1/Identity"
  op: "Identity"
  input: "sequential/lstm_1/Read/ReadVariableOp"
  attr {
    key: "T"
    value {
      type: DT_FLOAT
    }
  }
}
node {
  name: "Func/sequential/lstm_1/PartitionedCall/input/_3"
  op: "Identity"
  input: "sequential/lstm_1/Identity"
  attr {
    key: "T"
    value {
      type: DT_FLOAT
    }
  }
}
node {
  name: "sequential/lstm_1/PartitionedCall/while/enter/_21"
  op: "Enter"
  input: "Func/sequential/lstm_1/PartitionedCall/input/_3"
  attr {
    key: "T"
    value {
      type: DT_FLOAT
    }
  }
  attr {
    key: "frame_name"
    value {
      s: "sequential/lstm_1/PartitionedCall/while"
    }
  }
  attr {
    key: "is_constant"
    value {
      b: false
    }
  }
  attr {
    key: "parallel_iterations"
    value {
      i: 32
    }
  }
}
node {
  name: "unused_control_flow_input_3"
  op: "Placeholder"
  attr {
    key: "dtype"
    value {
      type: DT_FLOAT
    }
  }
  attr {
    key: "shape"
    value {
      shape {
        unknown_rank: true
      }
    }
  }
}
node {
  name: "Func/sequential/lstm_1/PartitionedCall/while/body/_12/output/_104"
  op: "Identity"
  input: "Func/sequential/lstm_1/PartitionedCall/while/body/_12/input/_93"
  attr {
    key: "T"
    value {
      type: DT_FLOAT
    }
  }
}
node {
  name: "sequential/lstm_1/PartitionedCall/while/next_iteration/_68"
  op: "NextIteration"
  input: "Func/sequential/lstm_1/PartitionedCall/while/body/_12/output/_104"
  input: "^Func/sequential/lstm_1/PartitionedCall/while/body/_12/output_control_node/_107"
  attr {
    key: "T"
    value {
      type: DT_FLOAT
    }
  }
}
node {
  name: "sequential/lstm_1/PartitionedCall/while/merge/_32"
  op: "Merge"
  input: "sequential/lstm_1/PartitionedCall/while/enter/_21"
  input: "sequential/lstm_1/PartitionedCall/while/next_iteration/_68"
  attr {
    key: "N"
    value {
      i: 2
    }
  }
  attr {
    key: "T"
    value {
      type: DT_FLOAT
    }
  }
}
node {
  name: "unused_control_flow_input_4"
  op: "Placeholder"
  attr {
    key: "dtype"
    value {
      type: DT_BOOL
    }
  }
  attr {
    key: "shape"
    value {
      shape {
      }
    }
  }
}
node {
  name: "sequential/lstm_1/PartitionedCall/while/Func/sequential/lstm_1/PartitionedCall/input/_3_switch/_44"
  op: "Switch"
  input: "sequential/lstm_1/PartitionedCall/while/merge/_32"
  input: "sequential/lstm_1/PartitionedCall/while/LoopCond/_35"
  attr {
    key: "T"
    value {
      type: DT_FLOAT
    }
  }
}
node {
  name: "Func/sequential/lstm_1/PartitionedCall/while/body/_12/input/_93"
  op: "Identity"
  input: "sequential/lstm_1/PartitionedCall/while/Func/sequential/lstm_1/PartitionedCall/input/_3_switch/_44:1"
  input: "^Func/sequential/lstm_1/PartitionedCall/while/body/_12/input_control_node/_84"
  attr {
    key: "T"
    value {
      type: DT_FLOAT
    }
  }
}
node {
  name: "Func/sequential/lstm_1/PartitionedCall/while/cond/_11/input_control_node/_71"
  op: "NoOp"
  input: "^sequential/lstm_1/PartitionedCall/while/merge/_24"
}
node {
  name: "unused_control_flow_input_5"
  op: "Placeholder"
  attr {
    key: "dtype"
    value {
      type: DT_INT32
    }
  }
  attr {
    key: "shape"
    value {
      shape {
        unknown_rank: true
      }
    }
  }
}
node {
  name: "Func/sequential/lstm_1/PartitionedCall/while/cond/_11/input/_74"
  op: "Identity"
  input: "sequential/lstm_1/PartitionedCall/while/merge/_26"
  input: "^Func/sequential/lstm_1/PartitionedCall/while/cond/_11/input_control_node/_71"
  attr {
    key: "T"
    value {
      type: DT_INT32
    }
  }
}
node {
  name: "Func/sequential/lstm_1/PartitionedCall/while/cond/_11/input/_78"
  op: "Identity"
  input: "sequential/lstm_1/PartitionedCall/while/merge/_30"
  input: "^Func/sequential/lstm_1/PartitionedCall/while/cond/_11/input_control_node/_71"
  attr {
    key: "T"
    value {
      type: DT_INT32
    }
  }
}
node {
  name: "sequential/lstm_1/PartitionedCall/while/cond/_11/while/Less"
  op: "Less"
  input: "Func/sequential/lstm_1/PartitionedCall/while/cond/_11/input/_74"
  input: "Func/sequential/lstm_1/PartitionedCall/while/cond/_11/input/_78"
  attr {
    key: "T"
    value {
      type: DT_INT32
    }
  }
}
node {
  name: "sequential/lstm_1/PartitionedCall/while/cond/_11/while/Identity"
  op: "Identity"
  input: "sequential/lstm_1/PartitionedCall/while/cond/_11/while/Less"
  attr {
    key: "T"
    value {
      type: DT_BOOL
    }
  }
}
node {
  name: "Func/sequential/lstm_1/PartitionedCall/while/cond/_11/output/_83"
  op: "Identity"
  input: "sequential/lstm_1/PartitionedCall/while/cond/_11/while/Identity"
  attr {
    key: "T"
    value {
      type: DT_BOOL
    }
  }
}
node {
  name: "sequential/lstm_1/PartitionedCall/while/LoopCond/_35"
  op: "LoopCond"
  input: "Func/sequential/lstm_1/PartitionedCall/while/cond/_11/output/_83"
}
node {
  name: "sequential/lstm_1/Read_1/ReadVariableOp/resource"
  op: "Const"
  attr {
    key: "dtype"
    value {
      type: DT_FLOAT
    }
  }
  attr {
    key: "value"
    value {
      tensor {
        dtype: DT_FLOAT
        tensor_shape {
          dim {
            size: 32
          }
          dim {
            size: 128
          }
        }
        tensor_content: "5G\007\275a1n\274\270y\253=J!\260\275T\202\203\274[i\007=\026\017\202>\252\3333=\017\252\253\275g\363\007\275\240/\207\275\022`\t\276\023\2132=O\267\035>\241ih\275\254W =\305\375:>\214\3732\275\206{Y\273\224@\254=\355U\265<a\345U>\340\307=<\353Zw=(\313\r\275\227\201\206>\363\250Z=\231\\\214<{[\036>m\013\030>\270\345l>F\027\331=#\035\2739)\337\234=\252\372\024\275\0213\211\274\232]^>\026X`\274\376`:=I\223\t\276s\306\027>\253\220\271=\322\246\021>g\215\017\276\265l%=\273\322\334\275\314I;>F\267\332\274\031\233\212>\032\251\242=\007|\337\274\361\311\343=~^c\275\242s\310=\237NF=\020Vq<\030&\370\275t\005R>a\272y>\334xb>\n\227\300=\235\005,=U\215\355=\220\241\006=\363\314\271=\310\362\215\275!\326\037=h\305G>78\341;S\007\307\275\306\241\321\274\342\321\317\275\005\247\257<\261T\313\275O\334\242=]\235\306\275\340<\004>#\010\254=/\257\036\276\017\'!\275\263**=\331\344-=\320\315A\276\"\221k\275\201\365\372<\376\223+>\3013\'\275\320\331\225<dBs<LK)=\214i\330=|\220k\276\276\224#\276\224k\004\276p\336\317\274\365\332\372<\337\311>>\332g\224\273x\213\014>\231\031\035\275uWX>Voy>=\320\324=J\022\001\275\231\341\213=\365\247N\275\322\251\207>\336\271\333=EM\r=hQ5\275[a\300\2748\005\356\274+\220\031>\355a\324=\016#`=\034\367H\275\341\363t=\222K@<\355\353\277=/\336\337\273\357S\256\275H\022\225>\221\326F>\241\006\251=\244\313\017>\265=\244<ZPH>x\316U\275^\311\016>D\277I=\264\021\007\275\336h\206=t\332\342=\2513\202\274\030yu\274\331\363\354=\367z[<\314\337\316\275V\335N\275\337\373\235\275\257\236o\276\373a\326=\356\374;<TBt\275\243\3075\276\354\204\323\275:\354\302\275\331\316\213\275R\266^\276\364\214D\273B\211\230=y\205\004>:\252\256\275\211\251\374=\344\031\353\275\337\305\r\275\336\314R\274\335,\330\275\362\331\\=zP\321<\240\370\230=\363\246j\275i\233\004>\200\0229=6\270\n=O\2425\275\332\226\231=\340\361\363=\340d\003>\225\2470\275\366:i\276\307r\t>\226\365>\276\321\343T=\222\250\312<YyJ=\241\241\230;\366\"C=\267\372\254\275km\">\272\333\031>\254im\276l\227\317\275\306]A>W\300\251=v\215\030>n\327\253=\031\216\025=c\221A\274\022\356\252=YP\r>\232s\312\275\311\231e>\342\003\000>\2050#\276\365\313\326\273\262*\007>\213q\251=\277\266\304=|\245\332\274\211c\340\275\202\274\000\275\2464\325\275\205l\350=}\3243\275\244Q\375=\t<}=\000R\023=\272\362\001<\023\201!9\204(3=\036R\210=\252U/=\326\246\t>\n\225\213=\027&8\276\2411\\=0\333u=\024O\004<\216/\026>\223\0275;a\007,\276mg\242<\rE\332=\211/n\276.\241\261=vu\300\275W\3349\276\336c/\276\2154[\275\013\267\031\276\021\370\365\275\334\236\335\275\304\275\333<d\205\t\274\026\206{\275k-\201\274G\227\344=\321\320\240\273\344\343\201<,\203/\275\322\262\213<=\235(>\315\232\265<\304\206\020\276W\347H=\321`T;\\\271\262\275A\361\266;\371`r\275G\026\354\274\345YE\275\347X\003<j\3170:\313\346{>\246\032\'\276\010\206u\275\216\006\266\274\314Bv\275at\034=\"\354\0179\213\222J\275\307:\375<\013\235\265;\303,\262\275L\357\201=\213\335 >\304?\034=\362\272\320<+\302J>@\"\325\273\373\334\300\275z$`>\030.\027<\256\252*\276\227\377\341\274k\333\304\274\245\375\r\276}YB>Ba\222=\377\347->\217\337{\274\033,\236<\232\264\274\2723\0013=\021\354\003\276\210E\006>\244\0353=\317&t=C\371\030\276`\217\277\274\2759-\2754\267\007\276W\007-\275\232~\202\275XJ\262;\354\351\007>\321;\276<\260\330\001;\004\'j;\013\256R>q\344\211=\214\tB\276\351J\270<\037\316\330<\253\253\235=\241\361\260</\220s\275\014\3248\274Ji\034\2765=\030>\"\244)<\220\352x=A5X\276|\351\200>\307\311\255\272\351\346\017\276\311\233\001>q_\233<\026+\212\275\251\311{\276\371\202\033\276c\365\200\275\\4\334<Z*\025>\003\220c=\315\261\016\2731\203B\275\236\220\013\274\\\323\241=\206\245\363=\311\027\244\274F\224\010<\350D\201\275L%\020=K\307\224\274\206\306\327\275\315o\357\275\251\243\310=\247\274\365=\243b\\\2753\242?\275\241J2>0\222I\2764t\306=\235\344I=\037L\003=\246\213(>r\261\232\275\341\354\263=\305\207{=\006X\234\275V\242\274\273\220{?\276:2\177=\246\360\004\276\301\315\t=\262\361\205>,;\230=\017\003\024>\207i8>EUI<f{\365=\006\335\270=\305V\\;\334C\330=\236_\207=\355l5\275\261w\303=\230\033Q<i\032\311\274\002\226\276=\345\266b\275\210l \276q\265\221=cf\223\275\226*\330\274\262\037W>\216\034\301\274\326\221\017\276\362Z\006=\036\201\"\274\241\251.\275\254\265/\276\023\031z\274\320\267\230=\301j\314\275\002A\210=\255\013)>\273\333\t<\322q\005\274\3576\341\275-\220\350=\364\200\034\275t$\210<EI\022=\265\016U=~e\214\275\307[W\276\231\340M\275\215\263\013<\034\224\007\276\317PV>\264y\212=O\257\t>\345\216\221=\237\226\221\275\300\217a\275\235\351u\2751y,\275\365\340t\275\361K\371\275\257\t\323\275\202\361G>\353\323\001\276\215?\275\273)\375\246\275g\037\266=\260\230\204\275\201\245\020\276\"\026\230>\347A\024\276\3101\374\275\374\323c=4\227\021>\345v\345=T2\001>\266F\255=N\235\230\274\231!a;\247q\376=\261:\022>_C\305\275,\345*\275lc!=:\2519\276\026y\277<=\235\225>\t\375\304\275\276k\330=\355\317\261=\333.\n\276\330-\225=A\222\254=\036\246\035\276\227v\215<\225]\261\273\251nO;\216\331\003\276\353\326\343\275\337\330\267=.\2665=\200/\317\274\255\317\254<\226\212\255=fX\236>G\324\256\274\2127\312=?\357d>*_3\274r\2108>\207\370\353=\201+\301=\317#\325\274\316\346\206=s\302->!S\230=\306\2035>A\225}=\224-@\274\345de=\317Q-\275\265l\250\275\301\\j>\tD\002<\025\200\310=\221\3121>_\010\243\273\246\317\233=\013\277U\275-b\317=d\374\207\275\022q\212\275uS\'\276\371\003\305=\240\027\033\276u\002\345\275\177\234:\274\032\230\371=xt\234<\007Ft>\027%\004\276\250\347Y=*\330\025\276\230e\237\275\027\2124>m\215q>\275;\241\275\033\021\311=gs=\276K\324w=\315!\r\275\n\264X\276S\354\376<\001\001\r>/Q\223\275\177\227b=\2227\357=v\215\003=\006\244\017\276\332\275\233;T\245\317\275\356\004\216<\363\2171=\000\334\206=\202\031\215<\343\253\373=F\264Y\276\364M.<\237\003(\276\252\r >i+\343\275\036\253\000\274a\266\305<\266\331\277\275\265e\r>\016\266t\275\275\2655>\200\324\234\276\331?I\275\025\014\324\274A\3117=\032\300\357;d\313\274\275\216\351\">\206\345N\275.z\004=(u\017=<31\275\316\030\333=l4\'\275Y\365\036=\036i\036\274\222\030\275\2767\340\274\275L\271\241=6\"0;\274[\316\274\266\0261>\302.\223=\2219 \276\036*\001<\200\374\010\275:bR>\363\341\240\274\';D=\330s\276\274\317I\224\274-\034\210=\252y\353\275s!\033\276\244\266\363;\366<\321\275\204S\247<X\327q\276\255\025\236=\275jy=\327\330\021=cp\010\275\375\231\240=\037\216\013\275\247Mn>\272t\262=\366\020.>\245C\253=\376\277\000=#\220\236=\337\364\010\276Q\203y\276{\301\205=\341\256k<\304\215\261\275\034#\344\274#\004\'\273;\277\251\275\224]a\273\237\n\225=\344\263\277\274s\035^=\006\206\324=\037\370\234\275l\362l\273\323\\\026\275\357]\221;\204\263J>\307\001\212\276\023#,\276f\274\200\274\005Q\001=Y\366r\276[\3528<;j\005>\247X5=pIq;\375Q\r<\270yY=\245\360\034>p \356=\311\2760\274h\267\302=\032\340\014>i\325}\275\243\025\262=\342\023\212=\276\321?\276\223\203\244\275\320\205+\276\254tV>k\222\262=W\217\037=\341\013j\274M\236V\275:\230\255\275\322\013\203=fW\022\276p\037,\275\265\000\206\276I\365\244=\357\303\321;\345\307\256=\305\334t=s\200\204\274g\3335>\206\022`>\317(>=\3779\254=[i\325<\311\336T>\252\307r=\035\375\264\274?\'F\276\371\223\223=e\002=\275\007f\020\276\003\006\254\276#\323\220=@\264\232\276\265\014\250=xF\024>>\231\022\276\332\'\000>\311\374\253\274\032\023\230\275p\334\373\275\014\311\237\275\241w\"\276]\322\273\276A\216_<\351\001\365\273\372=N=\211\235\313\275u\277\327=\355\301\310\274\003I\223;\312\214\n=\2730q\275\027m\016=\237\320\'=\237\2607\276\003\370\017>\026?\225=l 5\276\243V\306;\372\342\227=W\326\013>N[\346<\263\305\004>\254\342O==dQ\276\245<[>a9<\276\203\363\341\275\r\0221\274 \031\034\276\016\001Q\276J\245+>y\022\004\275\247\002\036>\342\232\345=\001W\022\275iZ\252\275\n\354v\275\267+c\2760\027\275=\257\247\302=\307-\201\274\276\344\344=?J.\276d\314\336\275s\270&\276\002]\005>BwN=\345\256\275=q<B\276\272Y!\276\362\355\002\2766\027}=s\362\003\275C\337\270\275\036\271\034\2755\261B\274\223\031\234\275,\341\031>=\2166\275\272g.>7\272\356=\021T\362=\300\311\271=\373\017\202\275u\341:\275\243\314P=\374\003$\276q\212\263=\273\021\320=\232\314v\275J\374\251<\023e\005\275~+\"\276\021,\331\272\353\363 \275\246z\245\274\235@6>b\t\020>7\314\036\2761\024\205\275\3060$>fx)\276\366F\026>_PG\275\033X\001>\340,\274=\323\2057\276\273\232\337\275B\214\244\274\362t\205\276\350\357\030=J\224\343;p\344\024\274\336F\014>\253\233\262\274v;\203\275\372P\311<\005\213\224\275\340\312i\275rR^=|\226\206\274\030\207\252\276:\242M\276\034\200Y\2752\307\\=\250\315\'\276\252 \351\275[\331\352\275\276\214\205\275\260k\327=\202\343\256=\007M\004:\265\267\204\276\256CZ=\3133n\275\316\"\005=\317P\021>\370e\201:\262\321\027\274y\220\250=\200\3440\275#\243\353<V?\277\275\220]&\276\351U\235\275*\270\375\275\222\263*\276\274&3\275\251\377r\272=\267\255\276\232\221\311<X\000\231\275\222>\323<\354\245\272\273\375\305)\276\177\312R\276\244\234<\276\335\327\264\275\327S\220<\250d\236\275\213\206*>\357\022\311>\036\240\345\275\323\374\351\273\315Z\223=\340\351:<z\006W<N\211\021<\260\374\371=\336fz\2757\302\242\273\233\203\221\275\245\201\005\2769\0311\276>\3472\276\273\r\204\273sZ\254=\313\241o\276s\313H>\024\367H\276\034n\034<e\325\222=;\333\374\275Z\304\336\275k\266\370\273\202\370\310\2751=c>]*\021\276\313\010)\275/\315\266\275\251\254\020\276\357ii\275P\010\220=\207+\306=\322f\245<\276\026)>^\333\205\275\366\333s\276Z\234\007\275\340\021+\276>y\343\276\222\314Z\275\212k\214\275\327\355&\276\025\240\206\2753\264~=Y\264\201=\242\377$\276\373\220\021>$\212\032=\357q\016\276|\3472>\n\202\210=\034V\027\276\216\315\213<\345{R\275\353J\"\275\244\211\207=\324\375\350=$c\352\274[\231.\274\000\351\216\276c\275\355\275R\302\033\2747wF\275\355Sf=\016\270\017<\307\336\000>\310k\210=\326\356\201\272\2079\246<9/2>\234\227\366<\335\374?\276*\321\'\275\316\343\360< \334\317=#L\320\274\372X\245\273\237Q4\276\260\353\275\274\370\3113\275S@v>=\263\307\275_\030*\276\367\2168=\3574\272\275:\317\252=\331\223\335\275\001\200P\276\203\203F\275\030:\010\274V\264.\276\021\345\200\275\315n\327\274v\023\333\275\347v\206=\356\"\031>-}^=\262\036\201=\343>N\276\351\006\375\274\314&5>\355\014\006>\354\312#>\017\330\003\275\"\217]\275\201B/\2763]\317\274\303\224\265=\275q\213\2753 \250\275\305n\374\274\200YB\275\315\014K\276,*`<@g\025\274\205>G\275\264O\024\276\340\372\217=qb\303\275\340\2724\275e\321\007>\220]o>h\026\356=\271\235\024>g!\243=\304\376\312\275\337E\037>\237\236\033\274\371\006,\276\003\216\230\275_\371\211\275\3241\211<\031=R>\177\026\031>\345\255\267\275\316\021.>\2305\024>P\326W>\337\\K=\010|\270<RU\304<g\3411\274\350\213}=\030\037\007>\361\373:\274]-1>\215\300\306=%\006\274=\243(\212\273>\277\351\275u7\320\274\350\033\205>\347#\214<\355\373P>\230\334\276=\016z\023\276(\216\254\275\014#\253\274k\273\260<\311\\\230>\344\021\007=\342;\373=\t\360$>\210\261\331;+\223\200\2758d\302\275j\027&>\326Z\306=Abt\275\016\010\002>\030!\261\276M\330\022\276\306wL>\350\364\275=\016]\267=,\251\262=\320\200\227=\362N\204=2jy\275s#\242==\330\036>\333\035\220\275\'b\361<\002(\234<\002\236y=\010b\313<l\212\003\275(\311\033\275}\315\341=uB\305\275\311[\020>-\316\244=\333\337\377\275H\356\323\275~\343p\274\254\275\372\2756\223\013>\317\345\270\275E\262\260=\246\233\023\275)\206;>\360v\010>\313J\224\275\315z^=4\245\351=\231\360\n\276:+\362<\203Kr\275m\344\032\275\325FB\274\250!P>\365N\262<\265<\240\2759\216\227\275\277Y<>:o\311\274\205\210\223\275Ks\323=\010l6=\017\226Q>\215\330|>\033\025\365\274\203\033#>\314\346f>\346\212\303\275\212`*>O\340\026=\263l\002=\241\342\t\276\275\035\242=\270\013\204=\216\026\242<\354x\001>\203\301\307\275u\374\204>\245o[\275\370\014\322\275\235\027\330=n@\003=cE3\275\230\330\000>b\226\312=sZ\233\275W&\n=\2118\313=\325\331\306=\317\304\236\273\013\264\355<\347\311\\\275\363\206/>\330I\273\275\007\210\240\275V\301\016\275\3216 =\232\342\321<3\237\241\275\177\311`\2755\"\250=\350\303\314\273\224\031M>CQR\275\2654\260\275\000\033\343\275=\217v=\244\007\r>\213\254U=G\177I>^F-<\217y\235\274\014\033\302\275\036\247\232\274\217\235a>\3619\000>\352\007\213<u\323E=\255^\253\275\261q\223=\353K\220\275\030sa\274NtJ>\374?\371\274J&\013>\341\002\277=x\310\321\273T\355\254>\017\037\032>U\021\032>\312\370\323\274\216\363\233\273H@\017<2\216\014=\247\224\306=\277\2277=y\341\352<\207je=\221\005\276<\242]\032\276oQ7\276H\225D\276aP]>[uw=Y\272\300=~\244\357<\024\365\255\275\013\206\223=4_9\275\022\272N\276\314\232+\276\335\2600<1<\306\275\240s(\275[\357\243\275(\001\306\274\363\334X\273\316[\023\2751\n#\276\364\301\247\275d\275\007\274\243\371B=\222\003\225\275\274\271\206\275.[\340=\340|\314=\274\302,<\222\303\356\275\365O\032\276\014\210_=\033\275\370=gf\242=\356\013y\274\217\250$>\2552\342=\016\010\234<\227H\210\276 (0<\210\021==\370\343.\274\352\335\226\275\263\252 \276\276\'\350=\271\215\002>\226\235\014\275<\221\316<\301\r\030=\206\3220\276j\242\313=\362p\207\275\330\230\273=?\311&>g\303(>\323[\r>\255\251\037>\207\375&<\266_)>\305E\020\276|}(>\211\255\311\272\356>u=\232\0044\276o\300\305=\323\036\237=\200\325\250<f\0353\275\366\026\231=\230\"\233\275\0210\275=\0350\036\274\\\305\214=\206\0377\275\334\333\202\275\010q\035>\035\375L>\254q\036\274\001\322\034<#r\301<<\371\267=\371Ye>e\365\251=\275Y\260=\241D\006<m\350\r\271\007\255\357\275:Z\203\275}!\304\274\342\305|=6Bw<l\033\244\275\2612W=\371\331Q=H\323\211=\204?\020=\374\r\227\275\221)?>fA(=\326\213\353\274\353\022+=G\226\251;D\340\005\276\2667\211>\355\030\231=\2404\266=\342\322@=\323\231)>\363\210\226\275\307\324V=\361&\236=V8u\276\302\001\031>h\002\022\275\233n4>\374\236\t>Z\261?=\360S\236\2759\306|=3\\\324=/\244\022=\301(\322=N\373W=\301\337\320\274b\021\207= \370\230\274U\245\273=Fx?\275\345Jc>\217\"\337=\016\r(\274S`\232=\256!U\275\252S\243;\357\355\277=4\262\300\275W\335\362=\365\356\230\274\261\326\013\276z8\366\274|g[\274\272j^<\001\243\340\2753,\367\274W\331\217\275?\036I\274\247J\226\273\241\3568=\326\214\337=\241bB\275\016\362\377<\033~\211=\327\254\022>1A\202=\225\331 \275\020`\322<S*\374\274\364/z=\005\025\303<\370\242\342=U6\331\275\036p\253\274\025\252q\276\'\030\t\275\037\336\000>\257\206@=\311\317\232=U\320\010>\272\t\341\2755\214\233\274\224\327\256\275\257\024\263\275}\361\345\274\374\007\242=\363Q\214>\031i\217=\202\032}\274\300\222\210\274\326Mf>\325\225\212>\257\303\341;|\206\363=^\312\r\274\204_\216=\342\344p<^z\026>\240\246\224=\331\017\314\275\t\265%\276\323\263\241\276\343\2724\275D\256\342\275\027\324g=\033\240l=]\277\260<\355i\214=\n\210\202>\021a\230\275(OA>\203\021\007>\207\345\337\275\0219\247=\244\241K=\200\377\n>\210\212A=\003b \276\217\\|=\273\014\261\274p\230\001\273\017\353\367\274t}\376\275 \027\325<\331;:>\315\351\262\275.\300\204=L:\223\275\'q\321\2755\205\207;\364\371C\276\221\365:\274\330\272t\276\327\301\213\275\276\274\324\274C\332\246=7\2433>\325\2634\276\033E\224\276\356\220\033\275\270F\204>B\013J>\254c*>\000\232\347=\035\270/\275X\243$\274&\235\257\275\364\000f=\304\024[=hv=\276\257\261\252\275\\\251\325=\345^\235\274\2357\"\2761\231\301\273\243\271\246\274\"\'\r>x\273\216=\3632\317\275\003\033\335\275\257\231\337:1i\027\274px\331<\301=4\275z\277e<\340\021\001\276\324\207\025\276cO\204=]*\344=+\266\330\275\034>\236=\273\017I>[\253\225=L\276\273\275\251Z+=Z\343\201=\'P\365=\3438\363=XoE\276\305\355h\276Az1\276\266\024i;P\031\322\274c\017\203=\365u\266\275v\371\265=\353+\217\275\271\030\003=\203\372\364<A\362\236<\375M\321\275\360J\t\275\323G\017=\020\001\267=3\000\337\271\313\253\205=D\316!\276\310\0059>\034\000\004=k>\272=^\311}=\324\356\370\275(bj\276\357\366,\275\330\336\315=z\004\352<\377\332E>\036\353\022<66\217\276\014O\332=\312>\347<\002\334g>\305\246\001=\024\220\373\274\217\326\177=v\365\274\275>\247\323:\205\2353\275\307\240\345=\005)\200<!\363\315=\310rM>\371\205\265=@\231\345\275\226\032\006;.\222\335\274\316\211c\275\2201\226\276o\372\205<\023\266(\275K\276\007>\240V\003=\247,\346=G\233\343<\024\366\377=\006l\234=\336\177/\2760~5\275\035(\211\274\0244k\274\001\227|\276\362\326\r<\234\nJ\276\336^`=\206eU\276\200\324\r=1\031\n>|*\216=\353s\002\275w\2336\276\372\241V=\271\231\207<[EN<;vb=]\312=\274W\200\007\276\221j\"\273\347\302\257\275\\]\006\276\0317q\275De\265\273\306\273y\275x\305\255\275b\217r>D\312\014>\351(\255<T7\t<\233)\031\276-\266\002>\214e\201=_\340\021>\027\203\304\275s9\207=\033\255\201=\331\375\230\275*\334\273\275<\250\335\272\016}K=\177\214\252\275y\242/\275\030\340=<\253\225\331:\211rG=\257\2228\276F8\237\274\303}\342=\014\350\217=\335\024\267\275rM\341;c4\022\275d\032\223;}h\010\276\302 m\275 \247!=\020\215\022\276\261\375\337\275\000\274\033<\375\024\253<rt\277\273e\014\272=`\230\341\274\373\310\021\275\330,\017\274I\213_\276|\023\230\275r\344M\275\325\027W=\006\2418=\334\3548\274D\216\334\275\t\221i=\316m\026>+Je\274\357e\037;8\242\010>j\202\207>\310\204(\276\336\314\273\275\007,6>5o(\2751w\337\274@v\014>\370\223\032=\212\211\032\276z\260\216=e;>\276\363\022:=\001\222\305\275\250bw<K\016?\276\340\252\000\274H\324\217\275\342\365q\275n7\351\275;\347\256=\364\273\303\275N\322\211\274D\264B>\332\000(\275\004\351\213>_r/<b\"[\276\212\222]>1\247\350<T\0272\274\302\212\206=:\352<\274\314nt=]\241:\275\334\266*><[\251\275\023\370\271;\364l\202=\'\344\327=\273<p\276?\324\235\275\220\344\331\275}\344\256\274\234\210\255\275\n}\016\276\333\204\230;q\343\222\274\220\1772=V\200c=zt{\276\021\261\244\276w\276\033=\030\023,=\000\023\036;\007\233f\275\270\r\310\275?\247_=Lh\227>\363b\307=C\3300\273t\222\372=l\342\251=&?~=\320\304}\275U\267\211<\341\215\210\275\000U\014\276\371c\017\276\217\225\253=\311\020\240\2757\271\232\2750\376\214\275\300v\034=\257\241.:\277\343\003>Xu\256<4\215\216<`\244H\276Y\313\254<\257\034\375\275\020\204\225\2767\251\255=F,\026\276(\025e\274\004x\203<\317\2409=0\036s\276B\351\235=\202\345\017\276\"[\204=kr6<a\177\014>o\rA>\246\276\252\274\344\264F=Se\277\275t\341\032\276KD\233=\3430j\276\315\206\347\275\031\024\021\275B\274\314\275Iv/\276\241\006\305=\306\324\342\275\214\350\356\275!\353\341<\271\\H=\362v\032\276\341\343Z\275\006\335\024\275~\300\336=a\203J=\206C\016\275g\270\277\275\201\350\227\275c\311h=\277\304\000\276]\335\247<\303{\025>\370\227\313\275rVd=\017\254Q<\311I\256\274h\327\320=\267`[\275^\243\254\275F\361\203=\\\304\003\276\000r;\276\025\333a\274\216\013\273=\214M\007=\221\245\271\274,\n\263\275G\t\023=\361\037\307\273\330\203_=\310u\210\275\373X\006>`\335S\275\355\323\030\276c\rl=\037\367\303=\356\032\303=\237c7;\032\014\325\275\240\236\213=\217N\002\276hC\203=\324m\336\275\353\234K\276\034\340\365\274\214\235x<\3002\026>t\257\027\275\216\371w\276\'\026\223\2741d\237\275\226\2579\275\215 \004\276E\020^\276>\215k\275[\256v\275\333L\342=i\232\211\275W63\276\222\213c\275\327\3629\2752b\204\274\370#\360\275\320n\013>\271\276\020\276$]2\276=:\363=\006\317\242=\221\302G>\233\221u\275#\t\331<\n\364\326=\303\335\316\275\014\272\345\275\266\217\207\275&\271->\354\312*\274\002\222\006\276Q,\361=\021i\203\276Z\023\326\275\320\277\302=\313\346\250=b.x=\224\036\013>\277\300\307\274\334\004\001<x\355\335:?\206y=\346K\025>\257&\210:\243|\367<\240o\372\275\301\306\n>\311G\222\273\'\351\226=E:\022>\224\3229\276gD\305=}\017\327=\203\266\345\274\226x]\276\365$\217=\252L]\272\003\342\230=\2719\306\275\317\223N\274\230\\\276=\314\177\217\274\331\002\224>`\361\264;a\375\216=\345\334\357<\254^\202\275\313\333\312=s\331\013\276\307=\241\274k\\\255<Y!\036>\325\373\200=\324\200\254\275\3715\356=\001h\010\276\264G\330\2741\312\252;J\227.=}\353\354\274\267~\016\275\224\r\364\275O\n&\275\264\346\242\275\027.\261=\270Q&\276\220G\226\274\277NK\275\253\\\027\275\274\034\261\2746\210\";\340\303\364\275\266\242\257=Gz\336=\315\227\335\275=\226><s\251\022\275\230]\306=vT\271=\342N%<\004\205`\276W\231\'=\373\3769=OD\000\275\354\257F\276\024\214\247\275udK>Q\034\206\2769E\203>\\8\232\275\376\216\255=\2248\317<\tq\022<\251\234b=\353\007\020\276\021\242C=\260&\343=\032\025i=\202l\241\275\262\022\240\274\233\316\347\275\253/?\274\274\374\300\275\266\336:\274\003q\003\275b<\310\273\215\225\021=\032]6\276GJ\336=Lu\216\276\317\177\000>a\3612\276(\234\341\275\232\036\002\274\237`\203=\003J\225\274W\372%\276\236h@\275T\263\236<\265\245\271\275\234\343\226\275(\006\272\272\214\366\022>qOP\276L\212\272=\305\033\346<\3075\027\276\312=\304=\334\250 \275\355\325\200\275i\001=\276\3219\300\274G\001\324\274o\240U<u!\241\274I>\234;\030\270\267=\354\206\t\275\333v\t\276A\001\303=p\353\203>&\177\t\275\302\277\340\275?\375\330\275\201s(>\277\327(>\231\222\212=\221\322\222\275l\022\373\2750\325\325\275\367\"\264=ub\261=\306\274\203\274\225B\230\275=\205\333\275!}\351\275\270\033\023=\371\361\217>\234b\t\276~l\223=O\314\256\275!\234\372=.\356F>\314@\010>o2\217\275n)\341=\362*I<\037]\356=\031K^\275\243\2309<\323(\030>\223)9\275\311\256c\275\370Z\257\275x\177\005\276\rc\213\276\236R\224=a\362\360=\372\276H>\003\227_\276\375\336\225\275{\271\204>d\234A>\207\354\221\275\"\341\000=\334Cz\276\367e\301\275C\377\'>\373\202\205\275\370 /\275\373\317Q=\352\\~\275\344\340\037=\313\370\211\275\323\203\024=Jkb\275x\314\r=\252a\251<\323\272C<Nr\023\274\275A\253>\027\302-\2762\205$\276\303\201\320\275\277\016\320=x2\215=\366d\212=\373_\207=(\213\227=9\316\307<Y=K\275]\277!\275W\310f\275\0227\301=\266\303$>Qq\t<\215_\323=\317^4<O\251\366<\233\010\345\275\370\020{;x\002\370=g\235n\273\226C\226\275\272\361\344<;\302\220\275W\355\231=\334\315\325<_C&<\177\001\'>\323;\375\275\300\245?>r\265\340=\363a\346=\302\274`<A\360\203=\234\221\263\275\374\335\005>ki_\276\270D@\276\333\022\003=L\235)\276\250ZA>\331\260\007\276\311@\230\275\365g\004\276\2013\n>Y\374\037>\002\370\346=*?1={\202R\276\222F\335\275\272>\320\275\t\2176\276E\271\205=#\257L=\2526V=t\235a\275\005%\266<\"&.\276ot\302\275d4\023>q\250\252=\246\251\005>\357oX>\345\013\340\274~\273\347\275\t\347\201\275\213\373\225=\226NZ\275==r=\277H_>\230s\354=\r\235S\276F\200\320\274\035Vl\275\221\031\226<\034\252\005>\253@\207\276w\244H>\267\316\334=\036{\230\275!\337*\276\357\014\331\274\212\\.>sA\"<\007*m<\305\275V=\035\316\323\275N\032\325=\232V\025\276q\006\211\275H*c\275\007\"J>\030\336\320\275\217O\235>\014\025\220\274\374\375%\276[iB=\266\251\247\275\222\272\023\276\016\233\033=\200\212!>\006W\023>N\351\211=\2522\234=\327\356\237<S\3004\2760]\323=\377\204\014\276\003=\014>\203P\216=9\342\334\275\2210\241;\245<f<c\244_\276E\252\373\274\200\r(\275\302E&=\2143\273=\214&\374=..\217\275q\346I<\013\202\322\275K>\221\275\034\265\022\276\231\361\005\2758\366\035\275&\014\327=\031\221\343\274*\224\345\275\267F\032\275\'\222\005\276\235\261:\275H\204a\274M\240\036=\025f\205<,j\213>q\220\003>\277L\306=8R\247=\347m\204<(\366\336\275\310\331\230=ho\211\276y*\242\272\242\302\257\275\276\325<=\322\246\271\275\317\201N=#\030\375\275dl\236=\020\326\270\275\356\327\300\275\324\003\315\275\223h\'>\300\202\251\275\317T*=\365\245\005\275\251\354\346\275\301\274\321<\036x\331;\354\273\201=g\200Q<\211\247 \275\355\317\200\274m\346\343=\036\257\013\2750\263\314=\353\363u<u \264<&\364\206=\340\230s<QH\277= \317\310\275\246e\245<\025FZ\275\250\324\305\275\004\267g\276\202\035s=\006?\304\273\312\032\032=~\326[<\025\034I\276\220\271Q\275\035\376\244\276\357\247\330<\335\325\275=\275\215\202\274Qm\267\275\273Pv=qzF\275\"\025\273=K\022J>\260V\213\2761\314\316\274\263\023w>V\263\315=\213XQ=\017\003\020=\377\254?>y<\245=G\364p>\355f{>}l\\=\231\327!>\246b]\276H\002M\274)\375\212\274\000\235(>\2547\221=\361h\251>\364\203\244\272\226\331\331\275ud\r\276\273;\036=J4i\275\2504\022\275\362\247\337\274\374-F>z\346\023=\243\336\227\273*\307\345=\002V\221=V$8=\205m\021>\215k\006>+\031\341=\003g\344=D*\222=j\255\307\274\317\240\177\275\325/\207>\253\335\352<\na\317=Q\353\270=2\032\025>\323\007`\275\004=\324=\264R\234=\312W7\275\332\306\265\275\204f\323=\377\031\036\276\317\220\302=j:L>\301!O<\337\222\376<\215\345n\275\177\241\366=M/\313\274\270\230\207=1F\275\274\313\224\303<\331b\374=\264\006\007\275=\221\213=\230\237Q=\035\025\251\275\353\216L=\246\253\364<\354\334\254=\257\345\264\275\375\325\034=3\261N=\250\026\333=\236\357V>v\036\257=\253\314\257\275<j\002=\037N8\276q\352\355\273n\220\351\275\274? >\372\231[\275 uD>\201\203U\276OR.<\033g\335\275mp\247=$\250\272\275\217\002\231\275\230\373w\273\351M\\\275B\017\n\275=+\375\274\356t\301=\261\355E=P\326?\2761\"!>{\3556\274=\221\013>\311?\242=\322\372\025>\020\274\377=\261\3127=H\303\000>\034\033\324=A\256\266=G\022\376;\203\235+>Yz\222=E$\000=~\227\206>\262\346\000\275\0235\246\274d!\003>x\0063\274\212\312O>1\'&=\355\244\204>\'X0>5\274\237<\031\343\256\274\264\343\031\276Q\014\344\274c\204\337\275\253\276\274<$)$=\273tX=\341\311\245\275=\006\352\274\271\026\225<\372\274\366=^\017J\276N\023\200=k\204\232\276\002\353$=\321H\210\275\255\245\305\273\006gt<b{\217>\277q\203=<\n\335=V\202\312<\206tl<\256\276Y>\036dS\274&u?=\356\274p\276b{:\2757\250R\276\343\246o=\013\2643>w[\261;\220\301)=\274\256\247\275\211\316\030>3Q\307\274\215\330E:B\320\021>\202\336\321;\237\374\315\2750k\223>\361m\331=!k\335\274\250/C\275\360U\241=\2600\350=\330#\206\275\2502]=\303(\241\275zt\323\274\306|\310=\220^\374\274L9\343=\276p\036<\244\017\213\275\333\353\266=\237H\344<\234\324\250=+\013\373;\232\237\267\275\372\324w\275\260\306\354\274\0346,= U\302\2740;X\276f_>\276s\241\242\275\325B\376\275w\312\203=\253\357\013>\247\322\200\275a\031\317\274\346\327\340\273\3601\315\275\352mB\274\310\003\037<\027?\222\275p\2623\275\364\353\225\273\377\241\022>\253\254D=\272C\230\276\373\277\325=S\263\034=\r\276S>\211t\250>Y\273\324\275\0313\236=)\244!=\305#\273<\254\001\221:\267L\260\274\244\246\274=\204}\024=\226Vq>3\222\363\274\341\026\017>\230nZ\275\206\215\362=N\301s\275\250\0145<\036\202\243=\253\224\032>\360%\002=_\216.<\326\325?\275\273_T\275\226A*\276\353U\331=\306\376\242=\210\343\201\275X|\034=\274\314C=3\250H=Z\240\226=\242#\200\275\362\310%>6tB>q\2070>1Ta>_\303\271\275.w\215=\375\232\n\276\377\360\217\275\347\236\036> D\273;yHL=\254\224\022\275,ZY=4\034\223\275bg\251=\014\2371\274\342\374\231\275|\343r\275\253\217\027\276J\241\034\276\2662\205=\211\301x=\316\340u<Q\231\305=\343\tt=d\270#>9\366\216\276\310\314\240\275\354\251\243<\306x\312=z\336\247\275\201\302\t>\266\"\231:\030c\r\276\210\270\002\276\t\020\016<\0212/\275\346\n\271=\\3=\276\242\240\346\273\365\014\027=\365k\031> \261\272\275\030.\010=\324l\360\272\373K\240\274\242\242q\274\211\307\326=\333V\023=\361\222\341\275\007\247\332\275\217-\334\275CEw\275\004\262?<8\237\203\275\304\207x=$\220e\273J\352h\276\344#\260\275\277qw<\361\231\240\273_\206\034\276=p9\276|{`>\344\221\235=\365\324\367\275\350\013h=>\370Y\275\221\305$>\000=\200\276\003\266\307=x\3019=\310\010>\276\262\261\005>\305\215?=\0327r\274s\030\240=\253\336\221\274\021\353\236\273\257\240\312\274\301I\275\275\373)\233<\320\270\001>^\nF>\236\346\024\275\361\356+\275\337\027\247=o\312s\276\333\017[<~\372v=J\226\003\275\212y\021\276\336d!\2759\220\226\276\3378\007\276^\357\205;\237\001o\273t\246\013>a\250\210\275^\\\203=\023^t=\037\336\\=\315\230\241\2749\267\315\275\026\363\025\2764\036\211=P].\275\361\301\302\275}\221[=E\202=\275\372\355\320<\035\2532>Va\302\274\365\237\276=\276\022l\273\365\037\314=\306-d\275\023\271c=\241\205a=\367\2338\276\373\0323\276#ui\275\021\221\377;\001\002\357\275\214\004\035:\241\352-\276\241\2218\276\343\343\313\275\350\351\311\274_K\332\275Fb\r\276\323\022\357=\362/\376\275\311\302y;\'\253\204=t\232\023>-\370\260=\233R^\275\246\342\207=\350\335\241=\021\350\235<eo\305\275^`[=\033\307\004>^\234e\275\332a\014\276i>\023=Be\022=\203\226\264\275C6\345=\261\235\361\274\326\210\306<@\027\003\274\361\252\021=\014\020\033>;\022\004>\264\017\271\275\027Q@\275\306\234\332=\036\250\316=L}:>I\326\000\275\267]\013=\215=U=,\367_=\221i\316\275\036\223\013\276?\237V\275\233\251\224\275\300\204Y\275\221\027\332\275A\221\313\275\\L\"\275\317\036\335=\310\3635\275\200\361;>\265\261Y>FV\334<\363~\016\275\314\2717<\217\3309=\031\303\240\2732\317-\274\206\301\003\273{;.\275\213\027\302=\004\216\270\275\270J\361=\213)$\275*\234\335=\363\"o\275\031B\013>\264\251M=\270\003\271<\265)\243=\001\313\004>\\\272{\274\t\004\350=\344\022Q\275\225\221,=\320\247}<q\026\267<\312\345;\275\353/\320<v\237\256<\350\224Y=a\031\276=\336,\275<o\346\233=\256\007L=\013)\223=\021YG=\350\010\336<Gk\302=\030\301.\276P\202\227=^\322=\275\347\2220=\307\234\037\274]7\000\276\323\234\017=P\215\'\275q\236\262\275N\031\310\275\310H\004>~wU=?\253\253=\353NF>\362~9\276;\001i\275\016\220\253<\241\353\201=\026\263>>\354\252\330\273\263\031\335\274\352\351\377=\213zZ\276Q\317Z\274\017\030\332\275\303\237\350\275\362Jl<\227\n\226<\037\315\370\275A\360R>\221\357\203=z\372\035>\006\3154=|\341\260\275=R]<\212\020\257\273b\233\021<\274\306f>\301\241\262\273\327\t\342;\'\007\355<y\030?>\327\\\247=\010\274\341\275m\005\224=w\037\305=I\036\237<\336\270\'>\013\210O\276\002\320K=\232\340\314=pk\370<S\276\275\275\202T\251>\035\342\324=y\256C\276\3406c\275\245z~<\311\0013<s\242I\276\367I\322=\014\226D>\016E4\275\305\313o=\201b\005>\325\376`=\262\351W=3\351\365=]0j\275\242\345+\276\rB\334=\221\324\026\273_\351\314\275\352\271b>14\210\275\224\177\245=W\310\020\276f\301\033\276\311a\246\273\353\353\376=\363\007\362\275\301\036\377\275.,\n\275\266\373\330=\353\225\n\276\n4\230\274J\270y=OX\016;S\3335\276\312)\016\275\273ze\275\355\250:\276\007>\223\2751\035\320\274y\317\004\276\233Hc\275g\003H> \301\020>\212\260\360\275\222N\031\276[\362K>\324g\235=\217\307_=\336\220$=_\267\005\276\177(\365<\255\365\206\276Q\351\326:m\177V\276\020ty\275\t\271\225\276\325{\201\275\202\366\323=\315\311\206=\365\210t\275\001\220a\276\013\306T=j\204\241=\035\215\337<P\336;=6\246\317\275O\031\306\275\242\205j\275!\222\236\275%\026\227\274+\014$<\">T\275\261\341\016\276z\366\361\2753\223\215=mr\334\275|1h<Ac\020=\302\026@=\333\003\004>$t\177\276{\227\376\275|Y\225=l\354\313=\0301M\274\367+v\274\256Q9>\007\240w=\203g\342=\006\374s\276\344\343\016>\306\241\255\2749J\275\275=|~=H\375J>&\277k=j\274\t>S\037\275=hG\343=\360.\343\275\310\037\377\275C3u\275>\213\332=\177\207\235\275\371\n&\276\362\356b>\235`\303=\310\005\366<\005\234\027\276g\031\354\275\221\204\022=\214\361\030\276\014{^=\225\324(\276c\243\345<\267C\252\275\373\032N\275how\276\217\203\277<\307\261[\276c\364\t\274\376\3633>\200S\320=\304\274\361=\242*4>\0133\225=\305\375\013>-\001\216\276\376\2766\276\n.\261\274\211\246q\275\301\r\220=\026{\307\275*\t\275\274C59\276Ql\272=\206\n\236\275\326\326\000\276\362\260\031\275z\274X\275\017F*;\244@\344=|\251\025=\244a\357\274q\351\261=\252\t\025>LX\332\275\201@f=\342\246K\273w`\245=\326\262C\276\014lA\2757\237\315\275\315e\331=\t(\033=\014v\217\275\252\265\270=&$\205\276\001\250G=s\033\361\275g\372\013=\373i7>\242\201\231=Q\000\326\275\371\250\347\274\025C!={\254\247\275\260\322R>A\006\320<\344X\304<\256\031\327;\216\340\010\276\323^\036\275\021\244G>\261\003@\276liy\275\365@\">9\361\315\274sO\257\274\374\271\251\273\346\\m=\264W\266\275I\323\211\2766?\266\274\2640\333=\266\314\005=F\r6\276X.\000>N\345Q=\373:F>\037\000\016=S\201\211\275\200\224\353=-\013\367\275\014u\270\275\200\303\245\275M\261\364\275\003}\225\274\021\201\200<t\231\264=\376\033\244\275,{w\275\257\0011>\317VS\276\346\323E\276M\361\"=\357\214\250\275\331\201\240\275\270\265\372=\356\267\300\275\0027\212\274k\226\255\275\016Z\237\275\312~=\276.B\234\276&jh\274\3067\207\275^\034\030<\013(\227\274\272\315 \275j\"\000>\236D\016\276|\232\213\275\2579=\276\303O\026\274+\r\n>\244\267\3628W\005\'\276\227\353\250<\214m\307\274|\265\221\274\202\361|=7\275\375<\257\345\2756a^d<)\373\233\275\213R\205\275\213\305n>\005$\035<J0\205\275M\214\013\276_\353[\275L-\206\275\330$\024\275\224\354\220=g\017\223\274#q\200\276\'\204<\276xKL=V\205\271=\313\243\\\275 \254\327\275\232\332t=:\377\320\275\273\211\355\275\241\013#>\025p\361\272)~\234\275G\'\301\275r\215\326\275\327\201\303\275\226\037\277\275I\364\301;\266 \250\275\2440)\2764\324l<\r\250X\275d\026\177\275\220\211x\276B\316H=\361\rL\2760\177\203=&\370\017\275Z\224\024>@\220l\276\264\013\212>\311\244\345<SKI\274\037\\7\275\316+\340=\356u@=x\210\207=\314B\221\275^\024\272=<6\250=7\034\242\275\221\351\006\276\371\274]<V\377\304\274\361\032\302\274(\251\222=\025\307\304\274\232\016\021\276\326\311|\274\322R\311<h\207\234\275\250f\271\275\035k\307\274M\364\203\275\210\204\031\276\033<q\274x\001 \274\"\013\221\275\213S\003\276\371r\241;\262\232H=\377\\\260;|\254\'=Z\323\273\275\002!\276\275\\l\217\274w\363\013>\204\311\303=\305]e\273X\245\207;\326a\021=\3504\'\275r\3764=k\026\375=\027\177r>9;5\2754J\007>/\353\375<\342Fj\275\245\003a:\323\343\244\275%\273\201=\344?\337=\022\000,\276\331\036h\275r\212\367\274\007\376\020\276\233M\267\275s\035\\\275\021L\243\275J/\017\276\241Q\007\276\2121\014\276\302\221\353\275\362\034\212\274:4{\273%{\305=\204h\017\276yo\335<\363\003\313=:\020]=\247\252\024\275\265\261>\276\202U#>=3\001=W\030a\276`h\034>{\305\010\276\210\005\n=\351\2637>\'\312)=\014W\255\275\350\234w\274?X\217\2741\\8\275X:\257=\247\304\273\274\301\024\014=8\"\n\275\"P\236\275\330\207L<o\351\272\275\003\205\202\275\366@,\275\262i\334=\362$z=E\t\362\273\224\327\006=\274\317L\275U\003\201<\277\346\365=\206e:\275\362b;\276\260\365\332=\312U&\275\234n\206\276\210*`\275\364\372\002\276\013\017\260=+\347\332=\\\037\023\276\001\371?\276\000\376B>\202\316\357\273\273\342\002\273\220\345\245\275@\243\020>\004\344i\276#\363\254\274R\244#=\240z#>L\005R=\333]+\275=\372\333=\325\001\371<\266\264|\275\006\022\213\275\342\274\020\276H\023\034\274\332K\024\275\322%m>\214\242\361\274-\351;\2751W<>\365\274r=\3571\031>5\3245\276wo\267\275\246V~\274W\350\035\275A\315\215\2746\330^\274\205\306\227\275.)\301=y\310\270>\027\201\276\275fQ\354=l:5\276\032\311n=\347t\350\274\270\315\244\275\317\266\233=\265U\372<\330,7\275WK\211\275\256\366\031>!\210\217\275\t&\371<Q\317\331\275?V\335=\211\236\300\275\377<q=z\264|\275=\372{<\207\241\305<\037\233\300=]\2110\276#\354J=\336(N=\255\024\n\276\300\377V\275_+\021\276YO\022\2765S\'>\tp\022\276k\010\321\275\345>`=pw:>\246\367.>\037\245g\275\303\303E=O\024\205<\221Y\346\275\235\200&={4\230\272\377\254[>\325=\217=>\326+\275O\363\033\276\232\300P>\034\273u\275\251(D\275uR\023>\005\340\242=&\265\257=\275\364\204\275!\036\217=\317i\360\274)\305\'\276\332\233\036>\240\2001\267\372\374\250\275\207\367^<\227\335Y\276:\016\377\275\362I\346=\267\035\000=\372{h=\221\246\352\274\220\245\277\275\024\341\032\275\300\321\007>\320\027\270<\254!\n\276WOo=}Ui\273\003RZ>\226\237N\275\207\374\270\273j\017\005\275`\r\216\275W\351\274<\265L[<O\311C=R\303\213\275M\226\003\274Es\032>Ps\363\275\356c*\276\322O\206\275\310[a:\263t\037>\357\033\207=\030+\215=\311\315\223\275x\330\214=\273b\323<\367\275\210\275\333\025\224\275\227\352>>_\024\203=3\336\364\273\336&\t\2754\253?\275\365\r_\275\314\222\202\275~x\024\2761sB=\262L\021\276\215\224\353\275N>\204\275y(\010<6\300i<\021\214\314\273\353=\336=\245&\310<\254f\036\276\321\371P=\347W@<\025M\265\274lr\002\275f\357\342\274\025j\315=V\245\r=\372\354t>KQp\275\027\002\024<\336D\375=<\345J\275?2\037\276\275s\337\275h!\360=\245P\315\274\3302\030\275\203\323\243\275\017\230G\276\213\323\000\276\303z\213\275\250\020\361\275\343\305$>\323#\004\275\302L\261\275\305\331?\275\034V\274\274\340\t\261\273\357^\013\276?V\007>\357;\005>\231u\016\276\237\236\006\276\337Q\216<\320\260K\275\335=\311=[m\001\276TI->\270\t\005=\013\177\017\276\370\267\331\275\003\037 \274S\206\005\276\375\220q>\312`#>\021p\374\275\330\034\255=\207\203D<#%\033>\213m\373\275h\027\002=\004\220\325=\017\242*\276\260\243\350\274nL\333=\214\265\270=\221\005,>\310\243\340\275\271\320\003=\3419\005=_\235\227\275\255\200Q=\206\255\035=.\213\256\275\201\317D\276\357\314\225\273\017\2327=\357\017\215=L\307\341=|l)\276\036\204\214\274}\304\003>%ty\275\001\"\234\275\217\246?=f\355\277=\241\230><\032b\016=,\013\265<\311\037\355\275\337?\200\275\346w$\276\262F\353=u\013\356<\363\215\027=\340\027\300=\001U\024<M\2173\276\3756\016\274\003\355U>\227\035m:\020L;>\326\342\221\275\216\3616= s\177=\"\343i=\214\032\201=\332\260\316\275\237\205\251\274J\360\333=\346t\206=\027j\006>\010\367c\275C+\262\275Kf\034>lY\006>o%\003\276\376\334\210\275\177\301\207=\357\311p=^3\207\275F\356x\275\306\243\360=&*\036\276\211\203\340\275\031\323b>\332\376d>;\001\031\275\336\363\227\2750\331\020>\010\233U\275l\324&>\032}\345\275\363\262!>F\\9=\361;\211=n\026\371=\203r\223<\271Y\352\275\004\206\357=r\231\201\275\300+\255\275\316\357F\275\210\225\202=\332p!>\036\024\370\275~1\014><e\025\276\361Hv\275\265\261K>\335\036\366\275\003\314\026\274\365\005T\276\351{\200\275*\326O\275\026\217n\274\336\366\206=\373a,\276\334:R=\266JF\275\266p\213\275<\r\230<l\367E>\300#\324\272`\'\370\274!r\377\274\245\233\215\276\234\0327=q\314\205=\302\324\266\273\214\025x<%.\006>\256\033b=-\005]=o\257H\276\262]\376=\375\336\221:\021\341\032>\340\213+=#H1=\001\206\221\275<\255\350\274\234Ce\276\322\003\233=8\360\372\273Q\273\020>i\301\200\275\347\244\242\275\275\245D\275O\225\030=-\024r=\321a\205\273ji\034>\221o\364<\276\326\227=\254\253\332=\221\034\355\275\332\301]\275+\217\354\274\356\333*\276^\2334\276\246\363t;\365a\217=2\330\301=\330\343H=\320_k\275\2471\177=9\n\241\274\315\016o\274tS\000<\2320\260<Y}f\275\3118]\275\023\330\r=>^\032\276\343\230\277\275*\315\274<\277Z&=\331\244\362\275:B\027\276\314]N\275E\272\362\275\221\302&>\3661\000\275\316|\314\274\327\346\247\274\344f\364<\306\247\261\275(\r/\276\214\377$=(\231\304\274\026\"\315\275\213\373)\27362\004>n\206\360\274\221\326{=J\333\210=\334\304/\276A\310W<\210\203\270\275}\267\331=\253k\204=U\004?\276\002\345\226=\223\273\206\275\353\304+>\260\244\304\275\317O\003>\241\030\361<\362W\225\274\256U/>\314=\257=\010Z!\275u\3009>\036\306h>\3345Z\274\311\351K>*\370\342\274\273\r\020\276v\233\366\274 \317\257=\360\317\'\275\365mF=rGB>\367\001\037>\336(\002>\352m\270\275\022\321\312=(0\304=\351\247\034=\245f\252\274\352+\225\275T\245\246\275\013\024\026\275\017\272B\275a\332$<\"6h\275\352\274\"\275+\002N>*t\234\275\314\270\232\275\271\370\243=\346\200\345=\034\0077\273\241#^<\017\023\303\274\370\035\007\276t\216\205=\377\361\260<\301\213\310\275\241\350|\273\245&(\275\026\315\307=\330\3152=\300\301\232=\252\027\017>\222\241\342=\373\257\213=7\323g\276*\277X>\215\223\304\274>\333\210\275~WG>\315\273\336\275\322OO=D\315\035>5\001\001>\276\320\252\275\305/M>\214:@\276|\021a>\357y\364\275\352\300H\275\312\346J\276\356\212\232\274\345\344\271=\213s(\276\323\265&\274\226z\231\275\317?a\275~\262R=){\356\273.:\301\275o\004\013\273\300\300\365=[A\242=\306E8>\020ec=\177\242^\275w\021\272\275k\036\267\275x\353d=5r%\276\200=\241=\212\210\363\275\276Y!\275\374l\243\275\211\010\201;7\375\255\276\024\240;=\037v)\275\270h\207\275\373\333:<U\220\005>\343\206\307\275Z<N\276\326\236*>{\277\032>E\223\357;I\277\t\274p\205\273\275\312\217F\276\003\274h\27549\007>\324W\274<\364\206\223\275Wf\r>8\342\004=\363z\224>\210\272`=\000\005\342;\254\002\037\275\273\275k=A\001\t=\276\337\307\275{\226\274\274\016\2154>Zt>\276\014\210:\275\203\177\365=\335\000\021=\260\233!\276S\336\225=\225z\304\275B\254\010>&VK\275\365\002\232=&\230\002\271\241s<\276\035<\265\275<;\035\276\207\355>=\277lS\276k>3\274=\200s<\"\036\000=\037=\017\276\323\t\025\276\034\316T\275V\346\303\275\255?\211;\327\321\245\275\275OQ=h?O\275\225\202\215> 8F\276\0344C\2768q\301=X\244\031\276h\336\201\276\373\3722\276)d\031=\216d\215=O\200<>,\333\340\275?ms\276\237\307\226>%d2\275\232\322Z=\355\207W\2742\353m\275\373\224\016>Y8B\274TVm\274\351\337a\275\304\307\252\275\005\266\216=\375\272d=6\362<<k\005g=W\031\t=\2639\363=#\010\024\275}\336\214\275\212\310\273\273k\225\214\274\004\331\351<\212\254\021\276\241P\257\275\016\247\336\275F\365\227=\007\370\027<\201\245\017\274\341\022\350=\334\313}\275\372\372\027=\230Q*=\213\226t\274\375t\303;\000\375O\276#\312B>\026@\200\273\013T\016=3\237\223\276\' \201=\361\210F\274T\365\201\275\235\334\302\275\t\260\241=3\244\177<\376\'\253\275D4\257\275\242\227\264\274&\302\345\273o\216h>\\\322\246\275\245\224h=ik\225\274<\030\205\276\365\373\345\274\351\267k>m\263\205=\236+?>C\257\030\276\335b(\275\276\234\010>o\027\307<\245\277\024=V\332\030>P*\245\275\311\322\345=\377\317\273=\025\254k=\267\243\234\275\033p\333=\377b\202=\337\301\304=\232\250\355\2752\021\255\273\327w\023<\220\274\025;sX\253\275R\356R\273*\320\263\275}\374\306<\245\262\002\275\2008\263\275F\356\006<\222\006\232=\231}\256=\254\333\333\275\204i\026\276\241\230\027\276j\2037\276\340\341\332<\310\315\230\2754\331\347=\227\312g<+\246y<@\2501\274\224b\224\273\016d\225=E-\177<#\316\253=p^W\275\323\234\312\274\301\236l=\014\276\366;Y\217\330=\352\255Y\276TH&\276\370\3360=\023bq=\236\024\275\275N\030\334\275\252\t(\276]\204\374=\226\302\232=\254\244\377<\200\\U>\324\233w\276\307\313\006\275G\216\253\2758\270\220\275\344\241\313<vLn\275\276eV\276\034\247\177\275\363\243\226=\321\016a\276\201_P\276\342b\364\274C\254\266;t\037M=T\263F=\225\215\215\276\200\365M\276Ms\322=/\013$>\206XT>\t\n\216=i\343\203=\034\224\006=P\'\010\275#6+\275f\317\005>H\370\227\274\330\221\244<\021\234\343=\226\\\341\274R\014\037<\234\356\355\273W\010)=\r\002\307=Y\227\007>\277=\006=\200O:=\020?\260\275|\336v\274BKu\274t\241\005=@\032#\275\3351\222<\274\321E=\251\r+>\305!\302\275\017l\270=@\246\020=\216\215\001\276,uJ>\026\374\207\275\322\360\204\275c\337\200=\363\014\254\275E\307H\274\025\375q=\273\350\255\275\355\364\244\275\377\242K\274\342\005!>n\373\262\274%\367R\275\223\2365\275\tK\335=\270\213\365\2748\274\302\274\367\354\235<(8\232=*m\037=\241;\036<4\261\331=\010L\000=\231\305\361<\367\'\223=O7g\271\260\006\211=M\244\001>\000j\t>C\307\023\276\005\315;=\220\250\365\275\373\3777>\356]\035\274\327\177\">\374^V>n\0139=u%\263\275\311\304\253=\020\257=\275r\002\005=\036\2439\2765s\356<\027\221\221=\247\216\220=),:><(a\275\nkc\276r^\003>\007\2111>\237\026!==\027\271\275o\270I\276\363\240\254\274\305N#\276\241n\002>?\271]\274\030\225\370\275\356\3655=\235g\337\274\307\230*=\320\270\331\275/\253\315=\326\301;\274\302\'\360=\264\235\267\275\027\324\371\273\005\221H\276\270T\224<\027\336\237\274\340\355\347=\201\026\247\275\276H\373<QZ\210\275\177+\307\275\247/\'\276d\335\234:K\027\347\275\026\'\251<\262\025w\275\n\361\257\274\207{\325\275\346q^\2751\372\266=L5\232<\000:m\275\364\343\312<X\312\257\274C@\364\275\026?\276\2726qD=\321d\003>\340\336\231=\325K\352\275\'\177S\276\302=\275=\313}\265\274H`\034>1\230\177\276>\306D\275\264a\\\275\322s\226<\024\275\247=\006\246\313= \376\233\275\375\260\271\275\npa=\305W\212\276\rk\334=X])\276\373s^<q3\254\273\031\277\234\275\335\342\201\275\254Hf=\023\213.>\006\335p=\305~\n\276\225\237\215\275\250\220\030\275.\241\004\276\014h\240:\274v\367=d\237O\275\0255g<\360a\036\276{\035\013<\333e\260=y\225\377\275N\177\255\273\225Q?\274\215\224\337=5\314p=9\036\026\276\261I\246<\030\266\035>\024\202y<24\351\275\352t\222=ZfZ\275\271p\021=\222\340\231\275\345\371P\274_R0=t\345==\337 [\276\026ia\275\363\017k\274<YQ=\377\n\217>\344\317\256\275 lv=\214\031\266\275=H*=\311\371\004\276\304\312\354=\241K\372\273\037\270#<\337\253f\276\371}I>\242\3067>\217U,\276\t\323\021>\345\347h\275\376\215\316=\016NV=\3779\000\276\3241c<\0377S\276Q_\245<\033\206\014\276\001\000\004\276\030\311\204<`\tO\276C\017\007\275\333\r\003>\035p\007>3]L\275\356\354\217\275=\212\365=\013\355\206>\271q\233\276 \334\014\275\237\202;\276\340\367\025\276\201\272f\276y|\027\276\320eG\275\247\300r\275wH\245=B8\312\275\312~\231=X\242\255>8\002\025=\323\025\202=rm\333<B\211*\276\032w*\275J\'\247:\2105\373\275\330\330\014>[\216/=\301\360\342\274\207\216\343=\\\327\241=-h5=\271\307S;\254\305\355={\021\357=\337\245->?j\260=\026\027!>e\027T\275H\321\274\2758B\313=F\021\t>\373\002~\275ZBs=\227\326\246\274t\263\031;\220\264Z\274\213\033\247<\213\2506>\016!\024=r~\263>\252-\025=\347F2>H\373S\275pR\267=$}\203\275\036\003\302\2753\230\324\274S\205\200\275\007\016F\275\362\262\321=w\350A>&\3539=\304\037\r=V\002\036\275\330\031\304\275;$\327=[\203\226=\256u\267=\\\270\253=\006x\210\275\242dL>\322\276_\273I\"3\275\265\0370\276\231\316\204=\317u\"<f\316z>\3417\254\275\322\300\206=\0265\227\274\301\357\206=1{\035<nA#=[;\310\274\363\364\026\275OUe\275\245G\237\275\245\005\336=\334 \213=\004\323\325=\316\333\220;\226e\361=\272\032\'\275U~\356=\300{\275\2752\273\365\274\370@\317\271\370-\315=\310\000\356=\306\374\326\272\025\215\260=\200U\250>]P\314<\235~\204\273\366\255\351<+\3003<\tw\027\276\035\217\345:\275l \276:|\003<\206\375\372\2755QX\276\326\300\330=9o\216=\351\247u\275\350\325.=L,\373<\306x\206=\316\"\337\275[\371==~Z3\275q\233\327=7A\217\275S/\017;1E\207=\025\002\275\275\221\205/=\202\022\263<ya\262\274&\002\036\275{\334\035\276\325\034\001=jI\206=A\245\023\276\371\022\243=\247S|\275\013\274\353=I\337\274\273CM\275\273Lv\233\275\205\"\220\276Z\345\025=V8\255\275\363\357:<\347\337\332\276\371b\200;\031\213\375<\302\222w=\234\3773=J\302\231<\347z\t\276\306\374;>\351\304\264=D\261{\275\rh\034>\036\010\366<\372\201g\276\362&\013\275\3501z=%v\253\274A\310\207=\251\343F<\256V)\274;%A=*i\373\274:i(\276\354\007\013>\005\035\367\274\314\317\265=\007\213(\276\345\262\021<\237\306 =\276(+>q\333R\276J\355|\276\260\027\264\275\231V\243=$X\257\275\2160s\276\030\271\306=\204\344\336\275\006\241.>\016p\257\2769m\275\274\306\226b\276L\250\304=\311\304A>\345\342\243\27485\323\273\274b\314\275~\240\221=\313\\\"<\311)\237=\267Jj<\272\005\234\275:X\317=\024o\257<^\344\206\276^\325-\276UH\264=\344\245\277\275T,\212\2758j\214\275\364\205Z>\267\263\263=$\'\r=\203\230\347=\375H}\275\30536\2755\331\214\274\346d\020>\221o\350\273{\177\031>Q\034V=Bm.\276\254\005P\273h\326\224>\260VK=\335S\340\273\331\247\241\274\350?;\276\247\311\365\275l.g\276\031k\021>G\236F=:~\014\276K\251\251=&\354\"\275\0362I=\020\020\232\275+E\202=\312M\246\272\314(\235=\001n\315\274+\327\004\275\367\022&=\373\261\372\275#\010\327\275)\206J\275B\000\314=\223={;8K\203=\226\020\253\274\210\"\020>\036\372)\275\312/\016\275@_\2369Y\351\200=\332(\211\275\025\037\243\274\253\375<\276\226\t\"\275<\224\204=g\215\032\276\213\252\227\274\371E\302\274\340q\227\275\323\036\311\275a@\310\276\332\377\350=wMC\275x\223{\276"
      }
    }
  }
}
node {
  name: "sequential/lstm_1/Read_1/ReadVariableOp"
  op: "Identity"
  input: "sequential/lstm_1/Read_1/ReadVariableOp/resource"
  attr {
    key: "T"
    value {
      type: DT_FLOAT
    }
  }
}
node {
  name: "sequential/lstm_1/Identity_1"
  op: "Identity"
  input: "sequential/lstm_1/Read_1/ReadVariableOp"
  attr {
    key: "T"
    value {
      type: DT_FLOAT
    }
  }
}
node {
  name: "Func/sequential/lstm_1/PartitionedCall/input/_4"
  op: "Identity"
  input: "sequential/lstm_1/Identity_1"
  attr {
    key: "T"
    value {
      type: DT_FLOAT
    }
  }
}
node {
  name: "sequential/lstm_1/PartitionedCall/while/enter/_22"
  op: "Enter"
  input: "Func/sequential/lstm_1/PartitionedCall/input/_4"
  attr {
    key: "T"
    value {
      type: DT_FLOAT
    }
  }
  attr {
    key: "frame_name"
    value {
      s: "sequential/lstm_1/PartitionedCall/while"
    }
  }
  attr {
    key: "is_constant"
    value {
      b: false
    }
  }
  attr {
    key: "parallel_iterations"
    value {
      i: 32
    }
  }
}
node {
  name: "unused_control_flow_input_6"
  op: "Placeholder"
  attr {
    key: "dtype"
    value {
      type: DT_FLOAT
    }
  }
  attr {
    key: "shape"
    value {
      shape {
        unknown_rank: true
      }
    }
  }
}
node {
  name: "Func/sequential/lstm_1/PartitionedCall/while/body/_12/output/_105"
  op: "Identity"
  input: "Func/sequential/lstm_1/PartitionedCall/while/body/_12/input/_94"
  attr {
    key: "T"
    value {
      type: DT_FLOAT
    }
  }
}
node {
  name: "sequential/lstm_1/PartitionedCall/while/next_iteration/_69"
  op: "NextIteration"
  input: "Func/sequential/lstm_1/PartitionedCall/while/body/_12/output/_105"
  input: "^Func/sequential/lstm_1/PartitionedCall/while/body/_12/output_control_node/_107"
  attr {
    key: "T"
    value {
      type: DT_FLOAT
    }
  }
}
node {
  name: "sequential/lstm_1/PartitionedCall/while/merge/_33"
  op: "Merge"
  input: "sequential/lstm_1/PartitionedCall/while/enter/_22"
  input: "sequential/lstm_1/PartitionedCall/while/next_iteration/_69"
  attr {
    key: "N"
    value {
      i: 2
    }
  }
  attr {
    key: "T"
    value {
      type: DT_FLOAT
    }
  }
}
node {
  name: "sequential/lstm_1/PartitionedCall/while/Func/sequential/lstm_1/PartitionedCall/input/_4_switch/_45"
  op: "Switch"
  input: "sequential/lstm_1/PartitionedCall/while/merge/_33"
  input: "sequential/lstm_1/PartitionedCall/while/LoopCond/_35"
  attr {
    key: "T"
    value {
      type: DT_FLOAT
    }
  }
}
node {
  name: "Func/sequential/lstm_1/PartitionedCall/while/body/_12/input/_94"
  op: "Identity"
  input: "sequential/lstm_1/PartitionedCall/while/Func/sequential/lstm_1/PartitionedCall/input/_4_switch/_45:1"
  input: "^Func/sequential/lstm_1/PartitionedCall/while/body/_12/input_control_node/_84"
  attr {
    key: "T"
    value {
      type: DT_FLOAT
    }
  }
}
node {
  name: "sequential/lstm_1/Read_2/ReadVariableOp/resource"
  op: "Const"
  attr {
    key: "dtype"
    value {
      type: DT_FLOAT
    }
  }
  attr {
    key: "value"
    value {
      tensor {
        dtype: DT_FLOAT
        tensor_shape {
          dim {
            size: 128
          }
        }
        tensor_content: "\244Zc\273\021cU==\300\232;\034\004\204;\302\203\221=\336*9\275\257E/;e\222\267:vB\017\275T\336\252<A\247\032\274\260!\331\275\232\220\203\275\203`\024\275:\202\345\274F\235#\275X\216\252\2743Sj;\021)\310\275\313\333U\274\251\230\023\275\032\270\376:\023\304\032\276\243\311d\275\005\334\370\272\233\"<\275\016S]\275\272\245\305<\243\232\030<\376\264\232\275\322\327\005=j\337\2749\025\347\177?\212\213\204?]\177t?\266\206\212?&\343\203?\211\271p?K\262}?\220\242\200?8|\177?#ez?D\243}?sdd?m\035n?\202\253f?\360\325\177?.Wj?\t\236\200?e\036\200?\260wz?\032\354x?mUs?\262\372\205?\220\232`?u\323r?\\\237j?R\346~?<us?^\367\202?\030Xq?\267Wc?\027#\201?\275i\204?@\236\313\274\234\nM<Z|\370\272\"\nX\275\345\310R\274\t\311\263<\3421^\275\305@]=\003\305=\274\212\334\007=\302\334\021\271*>\000\275\300K\235\274U4N\274\350+F=A\231\250<V\017\001=\2664\253\273\243\316\271\273\211Z\317\274\262\277\264\274\252\234\216\274\242\333q\275\352[\010\275\373T\203\275\370\365\355:w\322\026=\234\316d\275\343(\341\271\246)\021\275\2063p:\032,\n\274k\234m=\003Oh=\335\212g<%\014\201\275\267\222\226\273u\003>\275+E\312<<\215\221<\262\276U\275\266xC\275\177\177y<8xa\274\236\226z\275\375\241\002\275\360Ke\274\361\213f\275\223\033\034\275\322\251J;%\300\024\275\0006\014\276\256\010A=\023\377\207<\325\341\364\275v\201\024\275\250\014r\275\342\001\263\275\000\377\211\275Tn\343<\351\2744\272i\317d\275\361\352\213\274\264\267\021="
      }
    }
  }
}
node {
  name: "sequential/lstm_1/Read_2/ReadVariableOp"
  op: "Identity"
  input: "sequential/lstm_1/Read_2/ReadVariableOp/resource"
  attr {
    key: "T"
    value {
      type: DT_FLOAT
    }
  }
}
node {
  name: "sequential/lstm_1/Identity_2"
  op: "Identity"
  input: "sequential/lstm_1/Read_2/ReadVariableOp"
  attr {
    key: "T"
    value {
      type: DT_FLOAT
    }
  }
}
node {
  name: "Func/sequential/lstm_1/PartitionedCall/input/_5"
  op: "Identity"
  input: "sequential/lstm_1/Identity_2"
  attr {
    key: "T"
    value {
      type: DT_FLOAT
    }
  }
}
node {
  name: "sequential/lstm_1/PartitionedCall/while/enter/_23"
  op: "Enter"
  input: "Func/sequential/lstm_1/PartitionedCall/input/_5"
  attr {
    key: "T"
    value {
      type: DT_FLOAT
    }
  }
  attr {
    key: "frame_name"
    value {
      s: "sequential/lstm_1/PartitionedCall/while"
    }
  }
  attr {
    key: "is_constant"
    value {
      b: false
    }
  }
  attr {
    key: "parallel_iterations"
    value {
      i: 32
    }
  }
}
node {
  name: "unused_control_flow_input_7"
  op: "Placeholder"
  attr {
    key: "dtype"
    value {
      type: DT_FLOAT
    }
  }
  attr {
    key: "shape"
    value {
      shape {
        unknown_rank: true
      }
    }
  }
}
node {
  name: "Func/sequential/lstm_1/PartitionedCall/while/body/_12/output/_106"
  op: "Identity"
  input: "Func/sequential/lstm_1/PartitionedCall/while/body/_12/input/_95"
  attr {
    key: "T"
    value {
      type: DT_FLOAT
    }
  }
}
node {
  name: "sequential/lstm_1/PartitionedCall/while/next_iteration/_70"
  op: "NextIteration"
  input: "Func/sequential/lstm_1/PartitionedCall/while/body/_12/output/_106"
  input: "^Func/sequential/lstm_1/PartitionedCall/while/body/_12/output_control_node/_107"
  attr {
    key: "T"
    value {
      type: DT_FLOAT
    }
  }
}
node {
  name: "sequential/lstm_1/PartitionedCall/while/merge/_34"
  op: "Merge"
  input: "sequential/lstm_1/PartitionedCall/while/enter/_23"
  input: "sequential/lstm_1/PartitionedCall/while/next_iteration/_70"
  attr {
    key: "N"
    value {
      i: 2
    }
  }
  attr {
    key: "T"
    value {
      type: DT_FLOAT
    }
  }
}
node {
  name: "sequential/lstm_1/PartitionedCall/while/Func/sequential/lstm_1/PartitionedCall/input/_5_switch/_46"
  op: "Switch"
  input: "sequential/lstm_1/PartitionedCall/while/merge/_34"
  input: "sequential/lstm_1/PartitionedCall/while/LoopCond/_35"
  attr {
    key: "T"
    value {
      type: DT_FLOAT
    }
  }
}
node {
  name: "Func/sequential/lstm_1/PartitionedCall/while/body/_12/input/_95"
  op: "Identity"
  input: "sequential/lstm_1/PartitionedCall/while/Func/sequential/lstm_1/PartitionedCall/input/_5_switch/_46:1"
  input: "^Func/sequential/lstm_1/PartitionedCall/while/body/_12/input_control_node/_84"
  attr {
    key: "T"
    value {
      type: DT_FLOAT
    }
  }
}
node {
  name: "sequential/lstm_1/PartitionedCall/TensorArrayUnstack/TensorListFromTensor/element_shape"
  op: "Const"
  attr {
    key: "dtype"
    value {
      type: DT_INT32
    }
  }
  attr {
    key: "value"
    value {
      tensor {
        dtype: DT_INT32
        tensor_shape {
          dim {
            size: 2
          }
        }
        tensor_content: "\377\377\377\377\t\000\000\000"
      }
    }
  }
}
node {
  name: "unused_control_flow_input_8"
  op: "Placeholder"
  attr {
    key: "dtype"
    value {
      type: DT_FLOAT
    }
  }
  attr {
    key: "shape"
    value {
      shape {
        dim {
          size: 100
        }
        dim {
          size: -1
        }
        dim {
          size: 9
        }
      }
    }
  }
}
node {
  name: "sequential/lstm_1/PartitionedCall/TensorArrayUnstack/TensorListFromTensor"
  op: "TensorListFromTensor"
  input: "sequential/lstm_1/PartitionedCall/transpose"
  input: "sequential/lstm_1/PartitionedCall/TensorArrayUnstack/TensorListFromTensor/element_shape"
  attr {
    key: "element_dtype"
    value {
      type: DT_FLOAT
    }
  }
  attr {
    key: "shape_type"
    value {
      type: DT_INT32
    }
  }
}
node {
  name: "sequential/lstm_1/PartitionedCall/while/enter/_20"
  op: "Enter"
  input: "sequential/lstm_1/PartitionedCall/TensorArrayUnstack/TensorListFromTensor"
  attr {
    key: "T"
    value {
      type: DT_VARIANT
    }
  }
  attr {
    key: "frame_name"
    value {
      s: "sequential/lstm_1/PartitionedCall/while"
    }
  }
  attr {
    key: "is_constant"
    value {
      b: false
    }
  }
  attr {
    key: "parallel_iterations"
    value {
      i: 32
    }
  }
}
node {
  name: "unused_control_flow_input_9"
  op: "Placeholder"
  attr {
    key: "dtype"
    value {
      type: DT_VARIANT
    }
  }
  attr {
    key: "shape"
    value {
      shape {
        unknown_rank: true
      }
    }
  }
}
node {
  name: "Func/sequential/lstm_1/PartitionedCall/while/body/_12/output/_103"
  op: "Identity"
  input: "Func/sequential/lstm_1/PartitionedCall/while/body/_12/input/_92"
  attr {
    key: "T"
    value {
      type: DT_VARIANT
    }
  }
}
node {
  name: "sequential/lstm_1/PartitionedCall/while/next_iteration/_67"
  op: "NextIteration"
  input: "Func/sequential/lstm_1/PartitionedCall/while/body/_12/output/_103"
  input: "^Func/sequential/lstm_1/PartitionedCall/while/body/_12/output_control_node/_107"
  attr {
    key: "T"
    value {
      type: DT_VARIANT
    }
  }
}
node {
  name: "sequential/lstm_1/PartitionedCall/while/merge/_31"
  op: "Merge"
  input: "sequential/lstm_1/PartitionedCall/while/enter/_20"
  input: "sequential/lstm_1/PartitionedCall/while/next_iteration/_67"
  attr {
    key: "N"
    value {
      i: 2
    }
  }
  attr {
    key: "T"
    value {
      type: DT_VARIANT
    }
  }
}
node {
  name: "sequential/lstm_1/PartitionedCall/while/sequential/lstm_1/PartitionedCall/TensorArrayUnstack/TensorListFromTensor_switch/_43"
  op: "Switch"
  input: "sequential/lstm_1/PartitionedCall/while/merge/_31"
  input: "sequential/lstm_1/PartitionedCall/while/LoopCond/_35"
  attr {
    key: "T"
    value {
      type: DT_VARIANT
    }
  }
}
node {
  name: "Func/sequential/lstm_1/PartitionedCall/while/body/_12/input/_92"
  op: "Identity"
  input: "sequential/lstm_1/PartitionedCall/while/sequential/lstm_1/PartitionedCall/TensorArrayUnstack/TensorListFromTensor_switch/_43:1"
  input: "^Func/sequential/lstm_1/PartitionedCall/while/body/_12/input_control_node/_84"
  attr {
    key: "T"
    value {
      type: DT_VARIANT
    }
  }
}
node {
  name: "sequential/lstm_1/PartitionedCall/while/body/_12/while/split/split_dim"
  op: "Const"
  input: "^Func/sequential/lstm_1/PartitionedCall/while/body/_12/input_control_node/_84"
  attr {
    key: "dtype"
    value {
      type: DT_INT32
    }
  }
  attr {
    key: "value"
    value {
      tensor {
        dtype: DT_INT32
        tensor_shape {
        }
        int_val: 1
      }
    }
  }
}
node {
  name: "sequential/lstm_1/PartitionedCall/while/body/_12/while/TensorArrayV2Read/TensorListGetItem/element_shape"
  op: "Const"
  input: "^Func/sequential/lstm_1/PartitionedCall/while/body/_12/input_control_node/_84"
  attr {
    key: "dtype"
    value {
      type: DT_INT32
    }
  }
  attr {
    key: "value"
    value {
      tensor {
        dtype: DT_INT32
        tensor_shape {
          dim {
            size: 2
          }
        }
        tensor_content: "\377\377\377\377\t\000\000\000"
      }
    }
  }
}
node {
  name: "unused_control_flow_input_10"
  op: "Placeholder"
  attr {
    key: "dtype"
    value {
      type: DT_INT32
    }
  }
  attr {
    key: "shape"
    value {
      shape {
        unknown_rank: true
      }
    }
  }
}
node {
  name: "sequential/lstm_1/PartitionedCall/while/body/_12/while/TensorArrayV2Read/TensorListGetItem"
  op: "TensorListGetItem"
  input: "Func/sequential/lstm_1/PartitionedCall/while/body/_12/input/_92"
  input: "Func/sequential/lstm_1/PartitionedCall/while/body/_12/input/_87"
  input: "sequential/lstm_1/PartitionedCall/while/body/_12/while/TensorArrayV2Read/TensorListGetItem/element_shape"
  attr {
    key: "element_dtype"
    value {
      type: DT_FLOAT
    }
  }
}
node {
  name: "sequential/lstm_1/PartitionedCall/while/body/_12/while/MatMul"
  op: "MatMul"
  input: "sequential/lstm_1/PartitionedCall/while/body/_12/while/TensorArrayV2Read/TensorListGetItem"
  input: "Func/sequential/lstm_1/PartitionedCall/while/body/_12/input/_93"
  attr {
    key: "T"
    value {
      type: DT_FLOAT
    }
  }
  attr {
    key: "transpose_a"
    value {
      b: false
    }
  }
  attr {
    key: "transpose_b"
    value {
      b: false
    }
  }
}
node {
  name: "sequential/lstm_1/Shape"
  op: "Shape"
  input: "x"
  attr {
    key: "T"
    value {
      type: DT_FLOAT
    }
  }
  attr {
    key: "out_type"
    value {
      type: DT_INT32
    }
  }
}
node {
  name: "sequential/lstm_1/strided_slice/stack"
  op: "Const"
  attr {
    key: "dtype"
    value {
      type: DT_INT32
    }
  }
  attr {
    key: "value"
    value {
      tensor {
        dtype: DT_INT32
        tensor_shape {
          dim {
            size: 1
          }
        }
        int_val: 0
      }
    }
  }
}
node {
  name: "sequential/lstm_1/strided_slice/stack_1"
  op: "Const"
  attr {
    key: "dtype"
    value {
      type: DT_INT32
    }
  }
  attr {
    key: "value"
    value {
      tensor {
        dtype: DT_INT32
        tensor_shape {
          dim {
            size: 1
          }
        }
        int_val: 1
      }
    }
  }
}
node {
  name: "sequential/lstm_1/strided_slice/stack_2"
  op: "Const"
  attr {
    key: "dtype"
    value {
      type: DT_INT32
    }
  }
  attr {
    key: "value"
    value {
      tensor {
        dtype: DT_INT32
        tensor_shape {
          dim {
            size: 1
          }
        }
        int_val: 1
      }
    }
  }
}
node {
  name: "sequential/lstm_1/strided_slice"
  op: "StridedSlice"
  input: "sequential/lstm_1/Shape"
  input: "sequential/lstm_1/strided_slice/stack"
  input: "sequential/lstm_1/strided_slice/stack_1"
  input: "sequential/lstm_1/strided_slice/stack_2"
  attr {
    key: "Index"
    value {
      type: DT_INT32
    }
  }
  attr {
    key: "T"
    value {
      type: DT_INT32
    }
  }
  attr {
    key: "begin_mask"
    value {
      i: 0
    }
  }
  attr {
    key: "ellipsis_mask"
    value {
      i: 0
    }
  }
  attr {
    key: "end_mask"
    value {
      i: 0
    }
  }
  attr {
    key: "new_axis_mask"
    value {
      i: 0
    }
  }
  attr {
    key: "shrink_axis_mask"
    value {
      i: 1
    }
  }
}
node {
  name: "sequential/lstm_1/zeros/packed/1"
  op: "Const"
  attr {
    key: "dtype"
    value {
      type: DT_INT32
    }
  }
  attr {
    key: "value"
    value {
      tensor {
        dtype: DT_INT32
        tensor_shape {
        }
        int_val: 32
      }
    }
  }
}
node {
  name: "sequential/lstm_1/zeros/packed"
  op: "Pack"
  input: "sequential/lstm_1/strided_slice"
  input: "sequential/lstm_1/zeros/packed/1"
  attr {
    key: "N"
    value {
      i: 2
    }
  }
  attr {
    key: "T"
    value {
      type: DT_INT32
    }
  }
  attr {
    key: "axis"
    value {
      i: 0
    }
  }
}
node {
  name: "sequential/lstm_1/zeros/Const"
  op: "Const"
  attr {
    key: "dtype"
    value {
      type: DT_FLOAT
    }
  }
  attr {
    key: "value"
    value {
      tensor {
        dtype: DT_FLOAT
        tensor_shape {
        }
        float_val: 0.0
      }
    }
  }
}
node {
  name: "sequential/lstm_1/zeros"
  op: "Fill"
  input: "sequential/lstm_1/zeros/packed"
  input: "sequential/lstm_1/zeros/Const"
  attr {
    key: "T"
    value {
      type: DT_FLOAT
    }
  }
  attr {
    key: "index_type"
    value {
      type: DT_INT32
    }
  }
}
node {
  name: "Func/sequential/lstm_1/PartitionedCall/input/_1"
  op: "Identity"
  input: "sequential/lstm_1/zeros"
  attr {
    key: "T"
    value {
      type: DT_FLOAT
    }
  }
}
node {
  name: "sequential/lstm_1/PartitionedCall/while/enter/_17"
  op: "Enter"
  input: "Func/sequential/lstm_1/PartitionedCall/input/_1"
  attr {
    key: "T"
    value {
      type: DT_FLOAT
    }
  }
  attr {
    key: "frame_name"
    value {
      s: "sequential/lstm_1/PartitionedCall/while"
    }
  }
  attr {
    key: "is_constant"
    value {
      b: false
    }
  }
  attr {
    key: "parallel_iterations"
    value {
      i: 32
    }
  }
}
node {
  name: "unused_control_flow_input_11"
  op: "Placeholder"
  attr {
    key: "dtype"
    value {
      type: DT_FLOAT
    }
  }
  attr {
    key: "shape"
    value {
      shape {
        unknown_rank: true
      }
    }
  }
}
node {
  name: "sequential/lstm_1/PartitionedCall/while/body/_12/while/Identity_4"
  op: "Identity"
  input: "sequential/lstm_1/PartitionedCall/while/body/_12/while/mul_2"
  attr {
    key: "T"
    value {
      type: DT_FLOAT
    }
  }
}
node {
  name: "Func/sequential/lstm_1/PartitionedCall/while/body/_12/output/_100"
  op: "Identity"
  input: "sequential/lstm_1/PartitionedCall/while/body/_12/while/Identity_4"
  attr {
    key: "T"
    value {
      type: DT_FLOAT
    }
  }
}
node {
  name: "sequential/lstm_1/PartitionedCall/while/next_iteration/_64"
  op: "NextIteration"
  input: "Func/sequential/lstm_1/PartitionedCall/while/body/_12/output/_100"
  input: "^Func/sequential/lstm_1/PartitionedCall/while/body/_12/output_control_node/_107"
  attr {
    key: "T"
    value {
      type: DT_FLOAT
    }
  }
}
node {
  name: "sequential/lstm_1/PartitionedCall/while/merge/_28"
  op: "Merge"
  input: "sequential/lstm_1/PartitionedCall/while/enter/_17"
  input: "sequential/lstm_1/PartitionedCall/while/next_iteration/_64"
  attr {
    key: "N"
    value {
      i: 2
    }
  }
  attr {
    key: "T"
    value {
      type: DT_FLOAT
    }
  }
}
node {
  name: "sequential/lstm_1/PartitionedCall/while/Func/sequential/lstm_1/PartitionedCall/input/_1_switch/_40"
  op: "Switch"
  input: "sequential/lstm_1/PartitionedCall/while/merge/_28"
  input: "sequential/lstm_1/PartitionedCall/while/LoopCond/_35"
  attr {
    key: "T"
    value {
      type: DT_FLOAT
    }
  }
}
node {
  name: "Func/sequential/lstm_1/PartitionedCall/while/body/_12/input/_89"
  op: "Identity"
  input: "sequential/lstm_1/PartitionedCall/while/Func/sequential/lstm_1/PartitionedCall/input/_1_switch/_40:1"
  input: "^Func/sequential/lstm_1/PartitionedCall/while/body/_12/input_control_node/_84"
  attr {
    key: "T"
    value {
      type: DT_FLOAT
    }
  }
}
node {
  name: "sequential/lstm_1/PartitionedCall/while/body/_12/while/MatMul_1"
  op: "MatMul"
  input: "Func/sequential/lstm_1/PartitionedCall/while/body/_12/input/_89"
  input: "Func/sequential/lstm_1/PartitionedCall/while/body/_12/input/_94"
  attr {
    key: "T"
    value {
      type: DT_FLOAT
    }
  }
  attr {
    key: "transpose_a"
    value {
      b: false
    }
  }
  attr {
    key: "transpose_b"
    value {
      b: false
    }
  }
}
node {
  name: "sequential/lstm_1/PartitionedCall/while/body/_12/while/add"
  op: "AddV2"
  input: "sequential/lstm_1/PartitionedCall/while/body/_12/while/MatMul"
  input: "sequential/lstm_1/PartitionedCall/while/body/_12/while/MatMul_1"
  attr {
    key: "T"
    value {
      type: DT_FLOAT
    }
  }
}
node {
  name: "sequential/lstm_1/PartitionedCall/while/body/_12/while/BiasAdd"
  op: "BiasAdd"
  input: "sequential/lstm_1/PartitionedCall/while/body/_12/while/add"
  input: "Func/sequential/lstm_1/PartitionedCall/while/body/_12/input/_95"
  attr {
    key: "T"
    value {
      type: DT_FLOAT
    }
  }
  attr {
    key: "data_format"
    value {
      s: "NHWC"
    }
  }
}
node {
  name: "sequential/lstm_1/PartitionedCall/while/body/_12/while/split"
  op: "Split"
  input: "sequential/lstm_1/PartitionedCall/while/body/_12/while/split/split_dim"
  input: "sequential/lstm_1/PartitionedCall/while/body/_12/while/BiasAdd"
  attr {
    key: "T"
    value {
      type: DT_FLOAT
    }
  }
  attr {
    key: "num_split"
    value {
      i: 4
    }
  }
}
node {
  name: "sequential/lstm_1/PartitionedCall/while/body/_12/while/Sigmoid_1"
  op: "Sigmoid"
  input: "sequential/lstm_1/PartitionedCall/while/body/_12/while/split:1"
  attr {
    key: "T"
    value {
      type: DT_FLOAT
    }
  }
}
node {
  name: "sequential/lstm_1/zeros_1/packed/1"
  op: "Const"
  attr {
    key: "dtype"
    value {
      type: DT_INT32
    }
  }
  attr {
    key: "value"
    value {
      tensor {
        dtype: DT_INT32
        tensor_shape {
        }
        int_val: 32
      }
    }
  }
}
node {
  name: "sequential/lstm_1/zeros_1/packed"
  op: "Pack"
  input: "sequential/lstm_1/strided_slice"
  input: "sequential/lstm_1/zeros_1/packed/1"
  attr {
    key: "N"
    value {
      i: 2
    }
  }
  attr {
    key: "T"
    value {
      type: DT_INT32
    }
  }
  attr {
    key: "axis"
    value {
      i: 0
    }
  }
}
node {
  name: "sequential/lstm_1/zeros_1/Const"
  op: "Const"
  attr {
    key: "dtype"
    value {
      type: DT_FLOAT
    }
  }
  attr {
    key: "value"
    value {
      tensor {
        dtype: DT_FLOAT
        tensor_shape {
        }
        float_val: 0.0
      }
    }
  }
}
node {
  name: "sequential/lstm_1/zeros_1"
  op: "Fill"
  input: "sequential/lstm_1/zeros_1/packed"
  input: "sequential/lstm_1/zeros_1/Const"
  attr {
    key: "T"
    value {
      type: DT_FLOAT
    }
  }
  attr {
    key: "index_type"
    value {
      type: DT_INT32
    }
  }
}
node {
  name: "Func/sequential/lstm_1/PartitionedCall/input/_2"
  op: "Identity"
  input: "sequential/lstm_1/zeros_1"
  attr {
    key: "T"
    value {
      type: DT_FLOAT
    }
  }
}
node {
  name: "sequential/lstm_1/PartitionedCall/while/enter/_18"
  op: "Enter"
  input: "Func/sequential/lstm_1/PartitionedCall/input/_2"
  attr {
    key: "T"
    value {
      type: DT_FLOAT
    }
  }
  attr {
    key: "frame_name"
    value {
      s: "sequential/lstm_1/PartitionedCall/while"
    }
  }
  attr {
    key: "is_constant"
    value {
      b: false
    }
  }
  attr {
    key: "parallel_iterations"
    value {
      i: 32
    }
  }
}
node {
  name: "unused_control_flow_input_12"
  op: "Placeholder"
  attr {
    key: "dtype"
    value {
      type: DT_FLOAT
    }
  }
  attr {
    key: "shape"
    value {
      shape {
        unknown_rank: true
      }
    }
  }
}
node {
  name: "sequential/lstm_1/PartitionedCall/while/body/_12/while/Identity_5"
  op: "Identity"
  input: "sequential/lstm_1/PartitionedCall/while/body/_12/while/add_1"
  attr {
    key: "T"
    value {
      type: DT_FLOAT
    }
  }
}
node {
  name: "Func/sequential/lstm_1/PartitionedCall/while/body/_12/output/_101"
  op: "Identity"
  input: "sequential/lstm_1/PartitionedCall/while/body/_12/while/Identity_5"
  attr {
    key: "T"
    value {
      type: DT_FLOAT
    }
  }
}
node {
  name: "sequential/lstm_1/PartitionedCall/while/next_iteration/_65"
  op: "NextIteration"
  input: "Func/sequential/lstm_1/PartitionedCall/while/body/_12/output/_101"
  input: "^Func/sequential/lstm_1/PartitionedCall/while/body/_12/output_control_node/_107"
  attr {
    key: "T"
    value {
      type: DT_FLOAT
    }
  }
}
node {
  name: "sequential/lstm_1/PartitionedCall/while/merge/_29"
  op: "Merge"
  input: "sequential/lstm_1/PartitionedCall/while/enter/_18"
  input: "sequential/lstm_1/PartitionedCall/while/next_iteration/_65"
  attr {
    key: "N"
    value {
      i: 2
    }
  }
  attr {
    key: "T"
    value {
      type: DT_FLOAT
    }
  }
}
node {
  name: "sequential/lstm_1/PartitionedCall/while/Func/sequential/lstm_1/PartitionedCall/input/_2_switch/_41"
  op: "Switch"
  input: "sequential/lstm_1/PartitionedCall/while/merge/_29"
  input: "sequential/lstm_1/PartitionedCall/while/LoopCond/_35"
  attr {
    key: "T"
    value {
      type: DT_FLOAT
    }
  }
}
node {
  name: "Func/sequential/lstm_1/PartitionedCall/while/body/_12/input/_90"
  op: "Identity"
  input: "sequential/lstm_1/PartitionedCall/while/Func/sequential/lstm_1/PartitionedCall/input/_2_switch/_41:1"
  input: "^Func/sequential/lstm_1/PartitionedCall/while/body/_12/input_control_node/_84"
  attr {
    key: "T"
    value {
      type: DT_FLOAT
    }
  }
}
node {
  name: "sequential/lstm_1/PartitionedCall/while/body/_12/while/mul"
  op: "Mul"
  input: "sequential/lstm_1/PartitionedCall/while/body/_12/while/Sigmoid_1"
  input: "Func/sequential/lstm_1/PartitionedCall/while/body/_12/input/_90"
  attr {
    key: "T"
    value {
      type: DT_FLOAT
    }
  }
}
node {
  name: "sequential/lstm_1/PartitionedCall/while/body/_12/while/Sigmoid"
  op: "Sigmoid"
  input: "sequential/lstm_1/PartitionedCall/while/body/_12/while/split"
  attr {
    key: "T"
    value {
      type: DT_FLOAT
    }
  }
}
node {
  name: "sequential/lstm_1/PartitionedCall/while/body/_12/while/Tanh"
  op: "Tanh"
  input: "sequential/lstm_1/PartitionedCall/while/body/_12/while/split:2"
  attr {
    key: "T"
    value {
      type: DT_FLOAT
    }
  }
}
node {
  name: "sequential/lstm_1/PartitionedCall/while/body/_12/while/mul_1"
  op: "Mul"
  input: "sequential/lstm_1/PartitionedCall/while/body/_12/while/Sigmoid"
  input: "sequential/lstm_1/PartitionedCall/while/body/_12/while/Tanh"
  attr {
    key: "T"
    value {
      type: DT_FLOAT
    }
  }
}
node {
  name: "sequential/lstm_1/PartitionedCall/while/body/_12/while/add_1"
  op: "AddV2"
  input: "sequential/lstm_1/PartitionedCall/while/body/_12/while/mul"
  input: "sequential/lstm_1/PartitionedCall/while/body/_12/while/mul_1"
  attr {
    key: "T"
    value {
      type: DT_FLOAT
    }
  }
}
node {
  name: "sequential/lstm_1/PartitionedCall/while/body/_12/while/Sigmoid_2"
  op: "Sigmoid"
  input: "sequential/lstm_1/PartitionedCall/while/body/_12/while/split:3"
  attr {
    key: "T"
    value {
      type: DT_FLOAT
    }
  }
}
node {
  name: "sequential/lstm_1/PartitionedCall/while/body/_12/while/Tanh_1"
  op: "Tanh"
  input: "sequential/lstm_1/PartitionedCall/while/body/_12/while/add_1"
  attr {
    key: "T"
    value {
      type: DT_FLOAT
    }
  }
}
node {
  name: "sequential/lstm_1/PartitionedCall/while/body/_12/while/mul_2"
  op: "Mul"
  input: "sequential/lstm_1/PartitionedCall/while/body/_12/while/Sigmoid_2"
  input: "sequential/lstm_1/PartitionedCall/while/body/_12/while/Tanh_1"
  attr {
    key: "T"
    value {
      type: DT_FLOAT
    }
  }
}
node {
  name: "Func/sequential/lstm_1/PartitionedCall/while/body/_12/output_control_node/_107"
  op: "NoOp"
  input: "^Func/sequential/lstm_1/PartitionedCall/while/body/_12/input_control_node/_84"
}
node {
  name: "Func/sequential/lstm_1/PartitionedCall/input/_0"
  op: "Identity"
  input: "x"
  attr {
    key: "T"
    value {
      type: DT_FLOAT
    }
  }
}
node {
  name: "sequential/lstm_1/PartitionedCall/transpose/perm"
  op: "Const"
  attr {
    key: "dtype"
    value {
      type: DT_INT32
    }
  }
  attr {
    key: "value"
    value {
      tensor {
        dtype: DT_INT32
        tensor_shape {
          dim {
            size: 3
          }
        }
        tensor_content: "\001\000\000\000\000\000\000\000\002\000\000\000"
      }
    }
  }
}
node {
  name: "sequential/lstm_1/PartitionedCall/transpose"
  op: "Transpose"
  input: "Func/sequential/lstm_1/PartitionedCall/input/_0"
  input: "sequential/lstm_1/PartitionedCall/transpose/perm"
  attr {
    key: "T"
    value {
      type: DT_FLOAT
    }
  }
  attr {
    key: "Tperm"
    value {
      type: DT_INT32
    }
  }
}
node {
  name: "sequential/lstm_1/PartitionedCall/Shape"
  op: "Shape"
  input: "sequential/lstm_1/PartitionedCall/transpose"
  attr {
    key: "T"
    value {
      type: DT_FLOAT
    }
  }
  attr {
    key: "out_type"
    value {
      type: DT_INT32
    }
  }
}
node {
  name: "sequential/lstm_1/PartitionedCall/strided_slice/stack"
  op: "Const"
  attr {
    key: "dtype"
    value {
      type: DT_INT32
    }
  }
  attr {
    key: "value"
    value {
      tensor {
        dtype: DT_INT32
        tensor_shape {
          dim {
            size: 1
          }
        }
        int_val: 0
      }
    }
  }
}
node {
  name: "sequential/lstm_1/PartitionedCall/strided_slice/stack_1"
  op: "Const"
  attr {
    key: "dtype"
    value {
      type: DT_INT32
    }
  }
  attr {
    key: "value"
    value {
      tensor {
        dtype: DT_INT32
        tensor_shape {
          dim {
            size: 1
          }
        }
        int_val: 1
      }
    }
  }
}
node {
  name: "sequential/lstm_1/PartitionedCall/strided_slice/stack_2"
  op: "Const"
  attr {
    key: "dtype"
    value {
      type: DT_INT32
    }
  }
  attr {
    key: "value"
    value {
      tensor {
        dtype: DT_INT32
        tensor_shape {
          dim {
            size: 1
          }
        }
        int_val: 1
      }
    }
  }
}
node {
  name: "sequential/lstm_1/PartitionedCall/strided_slice"
  op: "StridedSlice"
  input: "sequential/lstm_1/PartitionedCall/Shape"
  input: "sequential/lstm_1/PartitionedCall/strided_slice/stack"
  input: "sequential/lstm_1/PartitionedCall/strided_slice/stack_1"
  input: "sequential/lstm_1/PartitionedCall/strided_slice/stack_2"
  attr {
    key: "Index"
    value {
      type: DT_INT32
    }
  }
  attr {
    key: "T"
    value {
      type: DT_INT32
    }
  }
  attr {
    key: "begin_mask"
    value {
      i: 0
    }
  }
  attr {
    key: "ellipsis_mask"
    value {
      i: 0
    }
  }
  attr {
    key: "end_mask"
    value {
      i: 0
    }
  }
  attr {
    key: "new_axis_mask"
    value {
      i: 0
    }
  }
  attr {
    key: "shrink_axis_mask"
    value {
      i: 1
    }
  }
}
node {
  name: "sequential/lstm_1/PartitionedCall/while/loop_counter"
  op: "Const"
  attr {
    key: "dtype"
    value {
      type: DT_INT32
    }
  }
  attr {
    key: "value"
    value {
      tensor {
        dtype: DT_INT32
        tensor_shape {
        }
        int_val: 0
      }
    }
  }
}
node {
  name: "sequential/lstm_1/PartitionedCall/while/enter/_13"
  op: "Enter"
  input: "sequential/lstm_1/PartitionedCall/while/loop_counter"
  attr {
    key: "T"
    value {
      type: DT_INT32
    }
  }
  attr {
    key: "frame_name"
    value {
      s: "sequential/lstm_1/PartitionedCall/while"
    }
  }
  attr {
    key: "is_constant"
    value {
      b: false
    }
  }
  attr {
    key: "parallel_iterations"
    value {
      i: 32
    }
  }
}
node {
  name: "unused_control_flow_input_13"
  op: "Placeholder"
  attr {
    key: "dtype"
    value {
      type: DT_INT32
    }
  }
  attr {
    key: "shape"
    value {
      shape {
        unknown_rank: true
      }
    }
  }
}
node {
  name: "Func/sequential/lstm_1/PartitionedCall/while/body/_12/input/_85"
  op: "Identity"
  input: "sequential/lstm_1/PartitionedCall/while/sequential/lstm_1/PartitionedCall/while/loop_counter_switch/_36:1"
  input: "^Func/sequential/lstm_1/PartitionedCall/while/body/_12/input_control_node/_84"
  attr {
    key: "T"
    value {
      type: DT_INT32
    }
  }
}
node {
  name: "sequential/lstm_1/PartitionedCall/while/body/_12/while/add_3/y"
  op: "Const"
  input: "^Func/sequential/lstm_1/PartitionedCall/while/body/_12/input_control_node/_84"
  attr {
    key: "dtype"
    value {
      type: DT_INT32
    }
  }
  attr {
    key: "value"
    value {
      tensor {
        dtype: DT_INT32
        tensor_shape {
        }
        int_val: 1
      }
    }
  }
}
node {
  name: "sequential/lstm_1/PartitionedCall/while/body/_12/while/add_3"
  op: "AddV2"
  input: "Func/sequential/lstm_1/PartitionedCall/while/body/_12/input/_85"
  input: "sequential/lstm_1/PartitionedCall/while/body/_12/while/add_3/y"
  attr {
    key: "T"
    value {
      type: DT_INT32
    }
  }
}
node {
  name: "sequential/lstm_1/PartitionedCall/while/body/_12/while/Identity"
  op: "Identity"
  input: "sequential/lstm_1/PartitionedCall/while/body/_12/while/add_3"
  attr {
    key: "T"
    value {
      type: DT_INT32
    }
  }
}
node {
  name: "Func/sequential/lstm_1/PartitionedCall/while/body/_12/output/_96"
  op: "Identity"
  input: "sequential/lstm_1/PartitionedCall/while/body/_12/while/Identity"
  attr {
    key: "T"
    value {
      type: DT_INT32
    }
  }
}
node {
  name: "sequential/lstm_1/PartitionedCall/while/next_iteration/_60"
  op: "NextIteration"
  input: "Func/sequential/lstm_1/PartitionedCall/while/body/_12/output/_96"
